{
  "version": "1.0",
  "truncation": null,
  "padding": null,
  "added_tokens": [
    {
      "id": 0,
      "content": "<s>",
      "single_word": false,
      "lstrip": false,
      "rstrip": false,
      "normalized": false,
      "special": true
    },
    {
      "id": 1,
      "content": "</s>",
      "single_word": false,
      "lstrip": false,
      "rstrip": false,
      "normalized": false,
      "special": true
    },
    {
      "id": 2,
      "content": "<unk>",
      "single_word": false,
      "lstrip": false,
      "rstrip": false,
      "normalized": false,
      "special": true
    },
    {
      "id": 3,
      "content": "<pad>",
      "single_word": false,
      "lstrip": false,
      "rstrip": false,
      "normalized": false,
      "special": true
    },
    {
      "id": 4,
      "content": "<g_patch>",
      "single_word": false,
      "lstrip": false,
      "rstrip": false,
      "normalized": false,
      "special": true
    },
    {
      "id": 5,
      "content": "<g_start>",
      "single_word": false,
      "lstrip": false,
      "rstrip": false,
      "normalized": false,
      "special": true
    },
    {
      "id": 6,
      "content": "<g_end>",
      "single_word": false,
      "lstrip": false,
      "rstrip": false,
      "normalized": false,
      "special": true
    }
  ],
  "normalizer": null,
  "pre_tokenizer": {
    "type": "ByteLevel",
    "add_prefix_space": false,
    "trim_offsets": true,
    "use_regex": true
  },
  "post_processor": null,
  "decoder": null,
  "model": {
    "type": "BPE",
    "dropout": null,
    "unk_token": null,
    "continuing_subword_prefix": null,
    "end_of_word_suffix": null,
    "fuse_unk": false,
    "byte_fallback": false,
    "ignore_merges": false,
    "vocab": {
      "<s>": 0,
      "</s>": 1,
      "<unk>": 2,
      "<pad>": 3,
      "<g_patch>": 4,
      "<g_start>": 5,
      "<g_end>": 6,
      "!": 7,
      "&": 8,
      "'": 9,
      "(": 10,
      ")": 11,
      ",": 12,
      "-": 13,
      ".": 14,
      "0": 15,
      "1": 16,
      "2": 17,
      "3": 18,
      "4": 19,
      "5": 20,
      "6": 21,
      "7": 22,
      "8": 23,
      "9": 24,
      ":": 25,
      ";": 26,
      "<": 27,
      ">": 28,
      "?": 29,
      "A": 30,
      "B": 31,
      "C": 32,
      "D": 33,
      "E": 34,
      "F": 35,
      "G": 36,
      "H": 37,
      "I": 38,
      "J": 39,
      "K": 40,
      "L": 41,
      "M": 42,
      "N": 43,
      "O": 44,
      "P": 45,
      "Q": 46,
      "R": 47,
      "S": 48,
      "T": 49,
      "U": 50,
      "V": 51,
      "W": 52,
      "X": 53,
      "Y": 54,
      "Z": 55,
      "_": 56,
      "a": 57,
      "b": 58,
      "c": 59,
      "d": 60,
      "e": 61,
      "f": 62,
      "g": 63,
      "h": 64,
      "i": 65,
      "j": 66,
      "k": 67,
      "l": 68,
      "m": 69,
      "n": 70,
      "o": 71,
      "p": 72,
      "q": 73,
      "r": 74,
      "s": 75,
      "t": 76,
      "u": 77,
      "v": 78,
      "w": 79,
      "x": 80,
      "y": 81,
      "z": 82,
      "â": 83,
      "Ċ": 84,
      "Ġ": 85,
      "Ģ": 86,
      "ĵ": 87,
      "Ġa": 88,
      "Ġt": 89,
      "es": 90,
      "he": 91,
      "Ġthe": 92,
      "on": 93,
      "ti": 94,
      "en": 95,
      "Ġan": 96,
      "le": 97,
      "ra": 98,
      "Ġs": 99,
      "Ġo": 100,
      "qu": 101,
      "tion": 102,
      "re": 103,
      "Ġn": 104,
      "Ġof": 105,
      "ph": 106,
      "gra": 107,
      "graph": 108,
      "ques": 109,
      "Ġques": 110,
      "Ġquestion": 111,
      "er": 112,
      "Ġf": 113,
      "od": 114,
      "con": 115,
      "iv": 116,
      "Ġre": 117,
      "rs": 118,
      "Ġand": 119,
      "Ġse": 120,
      "odes": 121,
      "Ġnodes": 122,
      "iven": 123,
      "Ġfi": 124,
      "in": 125,
      "ple": 126,
      "pr": 127,
      "te": 128,
      "ent": 129,
      "cond": 130,
      "Ġsecond": 131,
      "wer": 132,
      "Ġk": 133,
      "rst": 134,
      "pres": 135,
      "Given": 136,
      "swer": 137,
      "Ġgraph": 138,
      "Ġas": 139,
      "Ġanswer": 140,
      "Ġrepres": 141,
      "Ġfirst": 142,
      "Ġrepresent": 143,
      "Ġp": 144,
      "si": 145,
      "or": 146,
      "ce": 147,
      "Ġg": 148,
      "om": 149,
      "at": 150,
      "ri": 151,
      "ge": 152,
      "as": 153,
      "ma": 154,
      "Ġe": 155,
      "ing": 156,
      "ch": 157,
      "ted": 158,
      "ence": 159,
      "Ġcon": 160,
      "tu": 161,
      "der": 162,
      "ig": 163,
      "os": 164,
      "sti": 165,
      "ase": 166,
      "ow": 167,
      "Ġne": 168,
      "stitu": 169,
      "im": 170,
      "ee": 171,
      "ub": 172,
      "tra": 173,
      "Ġw": 174,
      "igh": 175,
      "ors": 176,
      "hat": 177,
      "eep": 178,
      "ble": 179,
      "enti": 180,
      "here": 181,
      "Ġex": 182,
      "rder": 183,
      "Ġenti": 184,
      "Ple": 185,
      "bors": 186,
      "cted": 187,
      "dge": 188,
      "now": 189,
      "rom": 190,
      "Ġ)": 191,
      "Ġ<": 192,
      "Ġ?": 193,
      "Ġtri": 194,
      "Ġthat": 195,
      "ties": 196,
      "Ġanch": 197,
      "ledge": 198,
      "Ġsim": 199,
      "Ġsub": 200,
      "Ġorder": 201,
      "quence": 202,
      "Ġfrom": 203,
      "Ġrema": 204,
      "Ġsequence": 205,
      "ining": 206,
      "Ġkeep": 207,
      "Ġknow": 208,
      "Ġpos": 209,
      "sible": 210,
      "Ġgiven": 211,
      "Ġconstitu": 212,
      "Ġneigh": 213,
      "tracted": 214,
      "Ġwhere": 215,
      "Ġextracted": 216,
      "Ġentities": 217,
      "Please": 218,
      "Ġtriple": 219,
      "Ġanchor": 220,
      "Ġsimple": 221,
      "Ġsubgraph": 222,
      "Ġremaining": 223,
      "Ġknowledge": 224,
      "Ġpossible": 225,
      "Ġconstitute": 226,
      "Ġneighbors": 227,
      "lm": 228,
      "Ġfilm": 229,
      "an": 230,
      "ca": 231,
      "eo": 232,
      "eople": 233,
      "Ġpeople": 234,
      "son": 235,
      "Ġl": 236,
      "erson": 237,
      "cation": 238,
      "li": 239,
      "Ġperson": 240,
      "st": 241,
      "Ġ(": 242,
      "ocation": 243,
      "ty": 244,
      "enre": 245,
      "Ġm": 246,
      "Ġpr": 247,
      "ĠC": 248,
      "of": 249,
      "ou": 250,
      "ĠS": 251,
      "ar": 252,
      "usi": 253,
      "usic": 254,
      "Ġlocation": 255,
      "sion": 256,
      "),": 257,
      "ni": 258,
      "Ġgenre": 259,
      "Ġmusic": 260,
      "Ġin": 261,
      "am": 262,
      "ilm": 263,
      "ta": 264,
      "th": 265,
      "la": 266,
      "ession": 267,
      "ang": 268,
      "Ġprof": 269,
      "oun": 270,
      "Ġprofession": 271,
      "ua": 272,
      "film": 273,
      "ed": 274,
      "ic": 275,
      "ol": 276,
      "angua": 277,
      "Ġlangua": 278,
      "el": 279,
      "Ġc": 280,
      "al": 281,
      "ali": 282,
      "ry": 283,
      "rti": 284,
      "by": 285,
      "il": 286,
      "ĠR": 287,
      "rtist": 288,
      "Ġartist": 289,
      "um": 290,
      "Ġlanguage": 291,
      "Uni": 292,
      "is": 293,
      "ĠA": 294,
      "United": 295,
      "ĠB": 296,
      "ĠM": 297,
      "ĠW": 298,
      "odu": 299,
      "ia": 300,
      "it": 301,
      "lu": 302,
      "du": 303,
      "ount": 304,
      "ĠK": 305,
      "ins": 306,
      "Ġprodu": 307,
      "ĠSt": 308,
      "com": 309,
      "flu": 310,
      "Ġinflu": 311,
      "Ġinfluence": 312,
      "The": 313,
      "mp": 314,
      "ts": 315,
      "ĠD": 316,
      "ord": 317,
      "bi": 318,
      "ly": 319,
      "ter": 320,
      "Ġcount": 321,
      "Ġartists": 322,
      "ates": 323,
      "ng": 324,
      "ĠP": 325,
      "Ġconta": 326,
      "lace": 327,
      "ducation": 328,
      "Ġcountry": 329,
      "Ġcontains": 330,
      "ck": 331,
      "us": 332,
      "ĠL": 333,
      "Ġeducation": 334,
      "de": 335,
      "ĠH": 336,
      "ro": 337,
      "rum": 338,
      "and": 339,
      "ĠStates": 340,
      "cord": 341,
      "por": 342,
      "iver": 343,
      "ation": 344,
      "ity": 345,
      "Ġspor": 346,
      "man": 347,
      "strum": 348,
      "Ġinstrum": 349,
      "Ġinstrument": 350,
      "les": 351,
      "Ġplace": 352,
      "mpic": 353,
      "lympic": 354,
      "20": 355,
      "Ne": 356,
      "Un": 357,
      "ction": 358,
      "genre": 359,
      "ĠF": 360,
      "ĠI": 361,
      "ĠT": 362,
      "Ġsports": 363,
      "hi": 364,
      "ur": 365,
      "ve": 366,
      "ĠO": 367,
      "ct": 368,
      "mon": 369,
      "vi": 370,
      "ĠG": 371,
      "Ġnation": 372,
      "ality": 373,
      "Ġnationality": 374,
      "19": 375,
      "op": 376,
      "ĠY": 377,
      "ender": 378,
      "sity": 379,
      "Ġgender": 380,
      "edia": 381,
      "iversity": 382,
      "Eng": 383,
      "Ma": 384,
      "di": 385,
      "mer": 386,
      "ess": 387,
      "New": 388,
      "ay": 389,
      "fli": 390,
      "ich": 391,
      "rth": 392,
      "sh": 393,
      "tfli": 394,
      "un": 395,
      "Ġb": 396,
      "Ġtit": 397,
      "Ġnetfli": 398,
      "Ġmedia": 399,
      "common": 400,
      "University": 401,
      "Ġtitles": 402,
      "Ġnetflix": 403,
      "location": 404,
      "pan": 405,
      "ounty": 406,
      "ctor": 407,
      "bel": 408,
      "et": 409,
      "for": 410,
      "ian": 411,
      "Ġolympic": 412,
      "institu": 413,
      "ork": 414,
      "ard": 415,
      "ĠRe": 416,
      "birth": 417,
      "Ġeducational": 418,
      "ĠYork": 419,
      "institution": 420,
      "ad": 421,
      "dom": 422,
      "ies": 423,
      "ĠJ": 424,
      "ĠN": 425,
      "ath": 426,
      "ĠKing": 427,
      "Male": 428,
      "Ro": 429,
      "ber": 430,
      "ele": 431,
      "lin": 432,
      "ne": 433,
      "ran": 434,
      "ced": 435,
      "lish": 436,
      "English": 437,
      "cer": 438,
      "ul": 439,
      "red": 440,
      "alist": 441,
      "vision": 442,
      "ĠKingdom": 443,
      "elevision": 444,
      "Al": 445,
      "city": 446,
      "ir": 447,
      "oh": 448,
      "ton": 449,
      "ver": 450,
      "ĠE": 451,
      "ĠUniversity": 452,
      "ode": 453,
      "Ġrecord": 454,
      "ine": 455,
      "omed": 456,
      "Ġeth": 457,
      "nicity": 458,
      "label": 459,
      "Ġproduced": 460,
      "Ġinstrumentalist": 461,
      "Ġethnicity": 462,
      "Ġinstrumentalists": 463,
      "land": 464,
      "node": 465,
      "Ġbi": 466,
      "Ġtv": 467,
      "tive": 468,
      "riter": 469,
      "ĠCity": 470,
      "ĠCounty": 471,
      "nia": 472,
      "ames": 473,
      "alifor": 474,
      "Ġproduction": 475,
      "Ġproducer": 476,
      "compan": 477,
      "Ġinfluenced": 478,
      "200": 479,
      "Ġbase": 480,
      "omedy": 481,
      "Ġbib": 482,
      "alifornia": 483,
      "companies": 484,
      "Ch": 485,
      "ak": 486,
      "ap": 487,
      "ith": 488,
      "van": 489,
      "Ġca": 490,
      "usician": 491,
      "tate": 492,
      "illi": 493,
      "ĠDay": 494,
      "ĠRecord": 495,
      "Film": 496,
      "Ja": 497,
      "Sc": 498,
      "eat": 499,
      "ges": 500,
      "ger": 501,
      "tt": 502,
      "ured": 503,
      "Ġde": 504,
      "Ġro": 505,
      "one": 506,
      "rector": 507,
      "erman": 508,
      "Ġfeat": 509,
      "inis": 510,
      "ĠCol": 511,
      "death": 512,
      "201": 513,
      "director": 514,
      "locations": 515,
      "bert": 516,
      "ĠRecords": 517,
      "Ġrock": 518,
      "Ġfeatured": 519,
      "An": 520,
      "German": 521,
      "In": 522,
      "Joh": 523,
      "St": 524,
      "are": 525,
      "dm": 526,
      "gh": 527,
      "games": 528,
      "pe": 529,
      "se": 530,
      "up": 531,
      "writer": 532,
      "Ġdirector": 533,
      "her": 534,
      "enn": 535,
      "ler": 536,
      "team": 537,
      "ory": 538,
      "ĠCalifornia": 539,
      "ĠSum": 540,
      "all": 541,
      "ill": 542,
      "lympics": 543,
      "ĠOlympics": 544,
      "199": 545,
      "ĠSummer": 546,
      "Bri": 547,
      "Comedy": 548,
      "Je": 549,
      "Re": 550,
      "Television": 551,
      "ica": 552,
      "mat": 553,
      "ox": 554,
      "vent": 555,
      "ĠV": 556,
      "Ġadm": 557,
      "rama": 558,
      "trative": 559,
      "lion": 560,
      "amp": 561,
      "ams": 562,
      "ican": 563,
      "Ġlanguages": 564,
      "ĠAmer": 565,
      "Ġolympics": 566,
      "tten": 567,
      "inistrative": 568,
      "John": 569,
      "Ġadministrative": 570,
      "'s": 571,
      "Ita": 572,
      "My": 573,
      "Mich": 574,
      "Rich": 575,
      "Sup": 576,
      "Th": 577,
      "au": 578,
      "ff": 579,
      "ot": 580,
      "oph": 581,
      "ogra": 582,
      "pi": 583,
      "person": 584,
      "ru": 585,
      "Ġ3": 586,
      "Ġd": 587,
      "ĠNew": 588,
      "ting": 589,
      "lege": 590,
      "reen": 591,
      "ivi": 592,
      "Ġfiction": 593,
      "iness": 594,
      "ritten": 595,
      "tur": 596,
      "Ġwritten": 597,
      "ary": 598,
      "olors": 599,
      "Ġcolors": 600,
      "ĠMc": 601,
      "mpus": 602,
      "usiness": 603,
      "ĠII": 604,
      "hite": 605,
      "ĠCollege": 606,
      "2010": 607,
      "Au": 608,
      "Actor": 609,
      "Don": 610,
      "Drama": 611,
      "Fe": 612,
      "Fran": 613,
      "Le": 614,
      "Pa": 615,
      "Sh": 616,
      "Ste": 617,
      "ab": 618,
      "ael": 619,
      "bur": 620,
      "ci": 621,
      "che": 622,
      "divi": 623,
      "gin": 624,
      "hu": 625,
      "ke": 626,
      "my": 627,
      "ment": 628,
      "musician": 629,
      "og": 630,
      "ora": 631,
      "ois": 632,
      "ron": 633,
      "ward": 634,
      "ĠZ": 635,
      "Ġj": 636,
      "Ġtelevision": 637,
      "est": 638,
      "ond": 639,
      "ind": 640,
      "progra": 641,
      "cease": 642,
      "male": 643,
      "inger": 644,
      "ign": 645,
      "ime": 646,
      "cal": 647,
      "ĠCo": 648,
      "ĠState": 649,
      "old": 650,
      "alt": 651,
      "ĠAd": 652,
      "ĠAl": 653,
      "ĠPic": 654,
      "hire": 655,
      "Ġbusiness": 656,
      "etro": 657,
      "Robert": 658,
      "Ġbibs": 659,
      "Ġbiblion": 660,
      "Ġdecease": 661,
      "ĠAmerican": 662,
      "Michael": 663,
      "Richard": 664,
      "Super": 665,
      "Female": 666,
      "division": 667,
      "program": 668,
      "Ġbiblioness": 669,
      "Ġdeceased": 670,
      ".,": 671,
      "Bill": 672,
      "Con": 673,
      "Gra": 674,
      "Ju": 675,
      "Musician": 676,
      "Pi": 677,
      "Rom": 678,
      "Salt": 679,
      "Willi": 680,
      "ax": 681,
      "ate": 682,
      "ach": 683,
      "band": 684,
      "ist": 685,
      "je": 686,
      "ld": 687,
      "llin": 688,
      "ob": 689,
      "ood": 690,
      "oli": 691,
      "ock": 692,
      "ut": 693,
      "uit": 694,
      "vel": 695,
      "Ġph": 696,
      "Ġhu": 697,
      "esign": 698,
      "end": 699,
      "level": 700,
      "Ġstate": 701,
      "rey": 702,
      "orld": 703,
      "omas": 704,
      "ries": 705,
      "ass": 706,
      "asy": 707,
      "ings": 708,
      "ant": 709,
      "lian": 710,
      "ĠCh": 711,
      "ĠCl": 712,
      "ark": 713,
      "arent": 714,
      "olin": 715,
      "ilos": 716,
      "ish": 717,
      "ĠAn": 718,
      "ĠTh": 719,
      "England": 720,
      "format": 721,
      "Rock": 722,
      "Screen": 723,
      "Italian": 724,
      "Ġ35": 725,
      "tures": 726,
      "burg": 727,
      "ĠPictures": 728,
      "divisions": 729,
      "Roman": 730,
      "William": 731,
      "llinois": 732,
      "uitar": 733,
      "Ġphilos": 734,
      "Screenwriter": 735,
      "Action": 736,
      "Ba": 737,
      "Bra": 738,
      "Bob": 739,
      "Can": 740,
      "Da": 741,
      "De": 742,
      "Fant": 743,
      "Kan": 744,
      "Sou": 745,
      "White": 746,
      "World": 747,
      "ag": 748,
      "az": 749,
      "ain": 750,
      "bor": 751,
      "county": 752,
      "cting": 753,
      "dy": 754,
      "design": 755,
      "ey": 756,
      "ear": 757,
      "go": 758,
      "gwriter": 759,
      "ham": 760,
      "io": 761,
      "ion": 762,
      "lig": 763,
      "mith": 764,
      "ny": 765,
      "ove": 766,
      "place": 767,
      "rd": 768,
      "sy": 769,
      "sub": 770,
      "to": 771,
      "tle": 772,
      "ue": 773,
      "ury": 774,
      "ven": 775,
      "ws": 776,
      "ys": 777,
      "ĠU": 778,
      "ĠThe": 779,
      "Ġus": 780,
      "Ġat": 781,
      "Ġaare": 782,
      "Ġaward": 783,
      "ones": 784,
      "Ġsche": 785,
      "graphy": 786,
      "ers": 787,
      "ery": 788,
      "Ġfor": 789,
      "Ġrelig": 790,
      "orr": 791,
      "orman": 792,
      "ria": 793,
      "ris": 794,
      "cho": 795,
      "igan": 796,
      "owa": 797,
      "ubli": 798,
      "ight": 799,
      "hatt": 800,
      "ana": 801,
      "anc": 802,
      "ank": 803,
      "campus": 804,
      "lip": 805,
      "ston": 806,
      "ĠCar": 807,
      "ĠCap": 808,
      "ough": 809,
      "tal": 810,
      "lack": 811,
      "ell": 812,
      "Ġcomedy": 813,
      "ille": 814,
      "ump": 815,
      "ĠWin": 816,
      "ĠDon": 817,
      "tern": 818,
      "use": 819,
      "ĠLe": 820,
      "ĠLak": 821,
      "ett": 822,
      "ult": 823,
      "irgin": 824,
      "Ġcause": 825,
      "ĠDays": 826,
      "Star": 827,
      "area": 828,
      "Thomas": 829,
      "France": 830,
      "Ġhud": 831,
      "Fantasy": 832,
      "subje": 833,
      "Ġuser": 834,
      "Ġaareas": 835,
      "Ġschema": 836,
      "Ġreligion": 837,
      "ublic": 838,
      "ĠLake": 839,
      "irginia": 840,
      "'t": 841,
      "00": 842,
      "Ad": 843,
      "Am": 844,
      "As": 845,
      "Bat": 846,
      "Black": 847,
      "Com": 848,
      "Car": 849,
      "Chi": 850,
      "California": 851,
      "Den": 852,
      "Dan": 853,
      "Detro": 854,
      "Ge": 855,
      "Horr": 856,
      "Jos": 857,
      "La": 858,
      "Man": 859,
      "Metro": 860,
      "Norman": 861,
      "Oran": 862,
      "Pr": 863,
      "Pat": 864,
      "Ray": 865,
      "Son": 866,
      "Spi": 867,
      "Singer": 868,
      "Vi": 869,
      "Vo": 870,
      "Val": 871,
      "Writer": 872,
      "av": 873,
      "ale": 874,
      "ara": 875,
      "ars": 876,
      "ba": 877,
      "bb": 878,
      "ball": 879,
      "can": 880,
      "dis": 881,
      "ek": 882,
      "em": 883,
      "era": 884,
      "eams": 885,
      "fa": 886,
      "ful": 887,
      "gon": 888,
      "gory": 889,
      "ho": 890,
      "han": 891,
      "ie": 892,
      "ice": 893,
      "ience": 894,
      "iam": 895,
      "lvan": 896,
      "ller": 897,
      "mi": 898,
      "ming": 899,
      "nes": 900,
      "ner": 901,
      "oc": 902,
      "ok": 903,
      "pos": 904,
      "parent": 905,
      "public": 906,
      "sas": 907,
      "shire": 908,
      "the": 909,
      "tory": 910,
      "ug": 911,
      "ze": 912,
      "zz": 913,
      "Ġ&": 914,
      "ĠUn": 915,
      "Ġacting": 916,
      "Ġtime": 917,
      "Ġteams": 918,
      "tic": 919,
      "tin": 920,
      "lex": 921,
      "Ġsax": 922,
      "Ġscho": 923,
      "Ġstory": 924,
      "eri": 925,
      "erre": 926,
      "erou": 927,
      "eries": 928,
      "produ": 929,
      "tegory": 930,
      "entury": 931,
      "orth": 932,
      "Ġguitar": 933,
      "ride": 934,
      "riller": 935,
      "assi": 936,
      "mari": 937,
      "own": 938,
      "Ġfilms": 939,
      "songwriter": 940,
      "stry": 941,
      "stery": 942,
      "type": 943,
      "ĠCamp": 944,
      "ĠCentury": 945,
      "ouse": 946,
      "ĠSp": 947,
      "ĠSmith": 948,
      "art": 949,
      "Ġindu": 950,
      "amil": 951,
      "tah": 952,
      "tain": 953,
      "ick": 954,
      "oll": 955,
      "Ġcine": 956,
      "ĠRo": 957,
      "ĠRiver": 958,
      "ĠAr": 959,
      "ĠAre": 960,
      "ĠBe": 961,
      "ĠBig": 962,
      "ĠBur": 963,
      "ĠMe": 964,
      "ĠMon": 965,
      "ĠMan": 966,
      "ĠMich": 967,
      "ĠMind": 968,
      "ĠWol": 969,
      "ĠWil": 970,
      "ĠWilli": 971,
      "ĠKhan": 972,
      "ĠDe": 973,
      "ĠPenn": 974,
      "ĠPark": 975,
      "ĠLee": 976,
      "ĠFox": 977,
      "ĠIs": 978,
      "ĠIllinois": 979,
      "ĠTime": 980,
      "ures": 981,
      "vid": 982,
      "ĠGri": 983,
      "197": 984,
      "198": 985,
      "oper": 986,
      "opher": 987,
      "opera": 988,
      "die": 989,
      "essee": 990,
      "unk": 991,
      "ĠJoh": 992,
      "2004": 993,
      "2009": 994,
      "Chris": 995,
      "Ġcapi": 996,
      "Ġcampus": 997,
      "Japan": 998,
      "Science": 999,
      "Germany": 1000,
      "ght": 1001,
      "ennessee": 1002,
      "1992": 1003,
      "Brian": 1004,
      "Jean": 1005,
      "Jews": 1006,
      "Record": 1007,
      "ventures": 1008,
      "Mystery": 1009,
      "Thriller": 1010,
      "ophy": 1011,
      "ophone": 1012,
      "rue": 1013,
      "ĠMcK": 1014,
      "ĠIII": 1015,
      "Paul": 1016,
      "Show": 1017,
      "Steve": 1018,
      "cip": 1019,
      "ĠZone": 1020,
      "Ġjump": 1021,
      "ĠAdventures": 1022,
      "ĠAll": 1023,
      "Gram": 1024,
      "Romantic": 1025,
      "Ġphilosophy": 1026,
      "David": 1027,
      "Kansas": 1028,
      "South": 1029,
      "sylvan": 1030,
      "hattan": 1031,
      "ĠWinter": 1032,
      "subject": 1033,
      "Detroit": 1034,
      "Horror": 1035,
      "Orange": 1036,
      "Voice": 1037,
      "iamond": 1038,
      "poser": 1039,
      "Ġsaxophone": 1040,
      "Ġschool": 1041,
      "Ġindustry": 1042,
      "ĠMichigan": 1043,
      "ĠWilliams": 1044,
      "ĠPennsylvan": 1045,
      "operation": 1046,
      "Ġcapital": 1047,
      "Ġcampuses": 1048,
      "Ġjumping": 1049,
      "ĠPennsylvania": 1050,
      "500": 1051,
      "63": 1052,
      "Af": 1053,
      "Ar": 1054,
      "Arth": 1055,
      "Ber": 1056,
      "Bry": 1057,
      "Bass": 1058,
      "Bio": 1059,
      "Co": 1060,
      "Case": 1061,
      "Cine": 1062,
      "Cult": 1063,
      "Du": 1064,
      "Dom": 1065,
      "Drum": 1066,
      "EM": 1067,
      "Ed": 1068,
      "En": 1069,
      "Ep": 1070,
      "Eu": 1071,
      "Ele": 1072,
      "Eri": 1073,
      "Ene": 1074,
      "Evan": 1075,
      "FC": 1076,
      "Fer": 1077,
      "Fox": 1078,
      "Gl": 1079,
      "Gr": 1080,
      "Gen": 1081,
      "Gar": 1082,
      "Get": 1083,
      "Gill": 1084,
      "Gold": 1085,
      "Guitar": 1086,
      "Har": 1087,
      "Hun": 1088,
      "Hamp": 1089,
      "Hist": 1090,
      "Is": 1091,
      "Illinois": 1092,
      "Iowa": 1093,
      "Jo": 1094,
      "Jim": 1095,
      "Kaz": 1096,
      "Lou": 1097,
      "Lind": 1098,
      "Mc": 1099,
      "Mi": 1100,
      "Mo": 1101,
      "Mon": 1102,
      "Men": 1103,
      "Min": 1104,
      "Mar": 1105,
      "Mark": 1106,
      "Omari": 1107,
      "Pe": 1108,
      "Pol": 1109,
      "Phi": 1110,
      "Que": 1111,
      "Red": 1112,
      "Sw": 1113,
      "Ser": 1114,
      "San": 1115,
      "Sil": 1116,
      "Sur": 1117,
      "Span": 1118,
      "Sride": 1119,
      "Tre": 1120,
      "Tim": 1121,
      "Trey": 1122,
      "Vanc": 1123,
      "Virginia": 1124,
      "Was": 1125,
      "Wood": 1126,
      "Yale": 1127,
      "ae": 1128,
      "ai": 1129,
      "aj": 1130,
      "air": 1131,
      "ative": 1132,
      "ating": 1133,
      "bo": 1134,
      "ban": 1135,
      "bora": 1136,
      "cu": 1137,
      "count": 1138,
      "cts": 1139,
      "cut": 1140,
      "da": 1141,
      "don": 1142,
      "ding": 1143,
      "dia": 1144,
      "dap": 1145,
      "ep": 1146,
      "eph": 1147,
      "ean": 1148,
      "eth": 1149,
      "eck": 1150,
      "ecu": 1151,
      "fe": 1152,
      "fession": 1153,
      "fic": 1154,
      "ford": 1155,
      "gg": 1156,
      "hing": 1157,
      "hab": 1158,
      "iz": 1159,
      "iel": 1160,
      "ibb": 1161,
      "ife": 1162,
      "ky": 1163,
      "kin": 1164,
      "kenn": 1165,
      "ll": 1166,
      "lo": 1167,
      "light": 1168,
      "lassi": 1169,
      "me": 1170,
      "mst": 1171,
      "nter": 1172,
      "nment": 1173,
      "ov": 1174,
      "oor": 1175,
      "ota": 1176,
      "ots": 1177,
      "ovan": 1178,
      "oot": 1179,
      "ography": 1180,
      "ps": 1181,
      "pse": 1182,
      "poli": 1183,
      "ress": 1184,
      "roll": 1185,
      "she": 1186,
      "singer": 1187,
      "sburg": 1188,
      "soc": 1189,
      "tes": 1190,
      "ther": 1191,
      "uc": 1192,
      "ure": 1193,
      "uan": 1194,
      "uni": 1195,
      "uel": 1196,
      "urti": 1197,
      "uff": 1198,
      "vin": 1199,
      "ville": 1200,
      "wa": 1201,
      "with": 1202,
      "xford": 1203,
      "yk": 1204,
      "yes": 1205,
      "yler": 1206,
      "zer": 1207,
      "zil": 1208,
      "zones": 1209,
      "Ġ2": 1210,
      "Ġ4": 1211,
      "Ġ8": 1212,
      "ĠX": 1213,
      "Ġun": 1214,
      "Ġroll": 1215,
      "Ġalex": 1216,
      "Ġto": 1217,
      "ese": 1218,
      "esh": 1219,
      "ests": 1220,
      "ester": 1221,
      "hel": 1222,
      "onger": 1223,
      "tish": 1224,
      "tiful": 1225,
      "ticip": 1226,
      "ley": 1227,
      "reek": 1228,
      "regon": 1229,
      "Ġfoot": 1230,
      "inn": 1231,
      "ino": 1232,
      "ines": 1233,
      "inley": 1234,
      "tem": 1235,
      "temp": 1236,
      "entary": 1237,
      "Ġpar": 1238,
      "Ġpop": 1239,
      "Ġparent": 1240,
      "Ġperi": 1241,
      "org": 1242,
      "orge": 1243,
      "orica": 1244,
      "ombi": 1245,
      "atar": 1246,
      "rig": 1247,
      "rist": 1248,
      "rican": 1249,
      "right": 1250,
      "ged": 1251,
      "geles": 1252,
      "ashi": 1253,
      "ashire": 1254,
      "Ġevent": 1255,
      "chlight": 1256,
      "ture": 1257,
      "tured": 1258,
      "oss": 1259,
      "osed": 1260,
      "osby": 1261,
      "oster": 1262,
      "stic": 1263,
      "stin": 1264,
      "ighty": 1265,
      "entine": 1266,
      "Ġexecu": 1267,
      "ane": 1268,
      "ance": 1269,
      "ander": 1270,
      "annes": 1271,
      "cago": 1272,
      "category": 1273,
      "lie": 1274,
      "stria": 1275,
      "tysburg": 1276,
      "ĠChe": 1277,
      "ĠCor": 1278,
      "ĠCosby": 1279,
      "ouri": 1280,
      "ouge": 1281,
      "ouver": 1282,
      "ĠSh": 1283,
      "ĠSim": 1284,
      "ĠSam": 1285,
      "ĠSus": 1286,
      "ĠSear": 1287,
      "aron": 1288,
      "Ġlocations": 1289,
      "nie": 1290,
      "Ġinter": 1291,
      "ame": 1292,
      "law": 1293,
      "laba": 1294,
      "lahab": 1295,
      "angerou": 1296,
      "ound": 1297,
      "oung": 1298,
      "icester": 1299,
      "olas": 1300,
      "olog": 1301,
      "elson": 1302,
      "ilkenn": 1303,
      "ĠRod": 1304,
      "ĠRab": 1305,
      "ĠRaj": 1306,
      "ĠRoss": 1307,
      "ĠRouge": 1308,
      "ise": 1309,
      "ism": 1310,
      "isne": 1311,
      "ĠAward": 1312,
      "ĠAlaba": 1313,
      "ĠBo": 1314,
      "ĠBir": 1315,
      "ĠBall": 1316,
      "ĠBaron": 1317,
      "ĠMar": 1318,
      "ĠMil": 1319,
      "ĠWar": 1320,
      "ĠWal": 1321,
      "ĠWhite": 1322,
      "ĠWars": 1323,
      "iation": 1324,
      "ittle": 1325,
      "ountry": 1326,
      "ĠKap": 1327,
      "ĠStre": 1328,
      "ĠStory": 1329,
      "ĠDiamond": 1330,
      "ĠDangerou": 1331,
      "Ġcountries": 1332,
      "ĠPa": 1333,
      "ĠPo": 1334,
      "ĠPr": 1335,
      "ush": 1336,
      "ĠLove": 1337,
      "ĠLonger": 1338,
      "ĠHer": 1339,
      "ĠHam": 1340,
      "ĠHall": 1341,
      "ĠHau": 1342,
      "rope": 1343,
      "ational": 1344,
      "Ġsport": 1345,
      "ĠFri": 1346,
      "ĠFoster": 1347,
      "ĠIan": 1348,
      "ĠIowa": 1349,
      "ĠTennessee": 1350,
      "ĠTyler": 1351,
      "ĠOl": 1352,
      "ĠOxford": 1353,
      "ctron": 1354,
      "vie": 1355,
      "ĠGu": 1356,
      "ĠGates": 1357,
      "ĠGun": 1358,
      "192": 1359,
      "1963": 1360,
      "ĠYou": 1361,
      "ĠYoung": 1362,
      "Mari": 1363,
      "diana": 1364,
      "ayne": 1365,
      "icholas": 1366,
      "bell": 1367,
      "ĠRepublic": 1368,
      "ada": 1369,
      "domain": 1370,
      "ĠJr": 1371,
      "ĠJones": 1372,
      "ĠNorth": 1373,
      "ĠNelson": 1374,
      "ĠNicholas": 1375,
      "Rob": 1376,
      "berg": 1377,
      "lines": 1378,
      "ull": 1379,
      "Albert": 1380,
      "Altern": 1381,
      "Allahab": 1382,
      "vernment": 1383,
      "ĠEp": 1384,
      "ĠEx": 1385,
      "ĠEnter": 1386,
      "ĠEyes": 1387,
      "lands": 1388,
      "2006": 1389,
      "aka": 1390,
      "ĠDayton": 1391,
      "Jack": 1392,
      "Jazz": 1393,
      "Ġdefa": 1394,
      "iniseries": 1395,
      "2012": 1396,
      "Ann": 1397,
      "Andy": 1398,
      "Insi": 1399,
      "India": 1400,
      "sex": 1401,
      "1997": 1402,
      "1999": 1403,
      "matography": 1404,
      "venture": 1405,
      "ĠVirginia": 1406,
      "ĠAmerica": 1407,
      "Italy": 1408,
      "Mystic": 1409,
      "autiful": 1410,
      "Ġdrama": 1411,
      "turn": 1412,
      "Austria": 1413,
      "Leicester": 1414,
      "orary": 1415,
      "rong": 1416,
      "ĠCooper": 1417,
      "Confession": 1418,
      "Julie": 1419,
      "Pierre": 1420,
      "achman": 1421,
      "ĠClosed": 1422,
      "olina": 1423,
      "ĠAngeles": 1424,
      "Ġphilosopher": 1425,
      "Brazil": 1426,
      "Bobby": 1427,
      "Canada": 1428,
      "Dean": 1429,
      "government": 1430,
      "nyrd": 1431,
      "ĠUtah": 1432,
      "Ġform": 1433,
      "ancashire": 1434,
      "ĠCarolina": 1435,
      "ĠCaptured": 1436,
      "ĠDonovan": 1437,
      "Adventure": 1438,
      "Assoc": 1439,
      "Composer": 1440,
      "Chicago": 1441,
      "Denver": 1442,
      "Joseph": 1443,
      "Manhattan": 1444,
      "Metropoli": 1445,
      "Valentine": 1446,
      "mingham": 1447,
      "ĠUncut": 1448,
      "produced": 1449,
      "ĠCampbell": 1450,
      "amily": 1451,
      "tainment": 1452,
      "Ġcinematography": 1453,
      "ĠArbor": 1454,
      "ĠBeautiful": 1455,
      "ĠBigger": 1456,
      "ĠWilson": 1457,
      "ĠGriff": 1458,
      "Grammy": 1459,
      "Arthur": 1460,
      "Bryan": 1461,
      "Biography": 1462,
      "EMI": 1463,
      "Eddie": 1464,
      "Europe": 1465,
      "Electron": 1466,
      "Enemy": 1467,
      "Gettysburg": 1468,
      "Hunter": 1469,
      "Hampshire": 1470,
      "Historica": 1471,
      "Joan": 1472,
      "McGill": 1473,
      "Moby": 1474,
      "Omarion": 1475,
      "Philip": 1476,
      "Queen": 1477,
      "Silver": 1478,
      "Spanish": 1479,
      "Sridevi": 1480,
      "Vancouver": 1481,
      "Washing": 1482,
      "countries": 1483,
      "ibbon": 1484,
      "lassical": 1485,
      "mstrong": 1486,
      "urtis": 1487,
      "Ġuniversity": 1488,
      "Ġalexander": 1489,
      "ticipating": 1490,
      "Ġfootball": 1491,
      "temporary": 1492,
      "Ġparticipating": 1493,
      "Ġperiod": 1494,
      "Ġexecutive": 1495,
      "ĠSearchlight": 1496,
      "Ġinterests": 1497,
      "ology": 1498,
      "ilkenny": 1499,
      "ĠAlabama": 1500,
      "ĠBirmingham": 1501,
      "ĠKapoor": 1502,
      "ĠDangerous": 1503,
      "Alternative": 1504,
      "Allahabad": 1505,
      "ĠEntertainment": 1506,
      "Ġdefault": 1507,
      "Confessions": 1508,
      "Association": 1509,
      "Metropolis": 1510,
      "Electronica": 1511,
      "Historical": 1512,
      "Washington": 1513,
      "04": 1514,
      "10": 1515,
      "30": 1516,
      "39": 1517,
      "AB": 1518,
      "AS": 1519,
      "Ab": 1520,
      "Ap": 1521,
      "Av": 1522,
      "Aub": 1523,
      "Ali": 1524,
      "Ani": 1525,
      "Aam": 1526,
      "Ath": 1527,
      "Ala": 1528,
      "Artist": 1529,
      "Aly": 1530,
      "Ang": 1531,
      "Amer": 1532,
      "Air": 1533,
      "Avan": 1534,
      "Aisne": 1535,
      "BT": 1536,
      "Be": 1537,
      "Bi": 1538,
      "Bu": 1539,
      "Ben": 1540,
      "Ble": 1541,
      "Bre": 1542,
      "Bub": 1543,
      "Bar": 1544,
      "Bil": 1545,
      "Bur": 1546,
      "Bun": 1547,
      "Bet": 1548,
      "Bad": 1549,
      "Bran": 1550,
      "Billi": 1551,
      "Box": 1552,
      "Business": 1553,
      "Bois": 1554,
      "Bish": 1555,
      "Bassi": 1556,
      "Bise": 1557,
      "CA": 1558,
      "Cy": 1559,
      "Che": 1560,
      "Cle": 1561,
      "Cre": 1562,
      "Cin": 1563,
      "Cent": 1564,
      "Cor": 1565,
      "Cri": 1566,
      "Cow": 1567,
      "Cli": 1568,
      "Cou": 1569,
      "Cla": 1570,
      "Ced": 1571,
      "Cry": 1572,
      "Cro": 1573,
      "City": 1574,
      "Cay": 1575,
      "County": 1576,
      "Cath": 1577,
      "Cele": 1578,
      "Comed": 1579,
      "Colin": 1580,
      "Cze": 1581,
      "Chattan": 1582,
      "Country": 1583,
      "Classical": 1584,
      "Curtis": 1585,
      "Dt": 1586,
      "Dy": 1587,
      "Dra": 1588,
      "Der": 1589,
      "Dod": 1590,
      "Div": 1591,
      "Dor": 1592,
      "Dou": 1593,
      "Del": 1594,
      "Dum": 1595,
      "Dun": 1596,
      "Dian": 1597,
      "Dad": 1598,
      "Dys": 1599,
      "Dorman": 1600,
      "Doc": 1601,
      "Dick": 1602,
      "Diamond": 1603,
      "Dashi": 1604,
      "El": 1605,
      "Eas": 1606,
      "Eli": 1607,
      "Ear": 1608,
      "Eth": 1609,
      "Ever": 1610,
      "Easy": 1611,
      "Eny": 1612,
      "EDt": 1613,
      "Fi": 1614,
      "Fle": 1615,
      "For": 1616,
      "Fred": 1617,
      "Fish": 1618,
      "Funk": 1619,
      "Fair": 1620,
      "Family": 1621,
      "Gre": 1622,
      "Gal": 1623,
      "Gand": 1624,
      "Gilli": 1625,
      "Gone": 1626,
      "Green": 1627,
      "Gary": 1628,
      "Gate": 1629,
      "Ginley": 1630,
      "GBT": 1631,
      "He": 1632,
      "Her": 1633,
      "Hin": 1634,
      "How": 1635,
      "Him": 1636,
      "Hol": 1637,
      "Hil": 1638,
      "Hard": 1639,
      "Hear": 1640,
      "House": 1641,
      "Hamil": 1642,
      "Il": 1643,
      "It": 1644,
      "Ice": 1645,
      "Iri": 1646,
      "Ith": 1647,
      "Ivan": 1648,
      "IAS": 1649,
      "Ji": 1650,
      "Jon": 1651,
      "Jam": 1652,
      "James": 1653,
      "Jorge": 1654,
      "KT": 1655,
      "Ka": 1656,
      "Ky": 1657,
      "Ken": 1658,
      "King": 1659,
      "Kun": 1660,
      "Kath": 1661,
      "Kir": 1662,
      "Kings": 1663,
      "Key": 1664,
      "Kwa": 1665,
      "Kilkenny": 1666,
      "Lo": 1667,
      "Ly": 1668,
      "Les": 1669,
      "Liv": 1670,
      "Los": 1671,
      "Lil": 1672,
      "Lis": 1673,
      "Land": 1674,
      "Lith": 1675,
      "Log": 1676,
      "Lond": 1677,
      "Life": 1678,
      "Luc": 1679,
      "Linn": 1680,
      "Little": 1681,
      "Lancashire": 1682,
      "LGBT": 1683,
      "Mer": 1684,
      "Modes": 1685,
      "Mat": 1686,
      "Mig": 1687,
      "Mou": 1688,
      "Musi": 1689,
      "Moun": 1690,
      "Mand": 1691,
      "Media": 1692,
      "Math": 1693,
      "Mary": 1694,
      "Mery": 1695,
      "Meth": 1696,
      "Muni": 1697,
      "Mighty": 1698,
      "Mush": 1699,
      "MCA": 1700,
      "Nat": 1701,
      "Not": 1702,
      "Nora": 1703,
      "Nut": 1704,
      "Nag": 1705,
      "Ol": 1706,
      "On": 1707,
      "Op": 1708,
      "Or": 1709,
      "Os": 1710,
      "Oak": 1711,
      "Ope": 1712,
      "Oregon": 1713,
      "Ph": 1714,
      "Por": 1715,
      "Pri": 1716,
      "Pos": 1717,
      "Par": 1718,
      "Ped": 1719,
      "Pro": 1720,
      "Pop": 1721,
      "Pian": 1722,
      "Poli": 1723,
      "Pough": 1724,
      "Public": 1725,
      "PIAS": 1726,
      "Quan": 1727,
      "Ra": 1728,
      "Ru": 1729,
      "Ron": 1730,
      "Row": 1731,
      "Rang": 1732,
      "Rol": 1733,
      "Rut": 1734,
      "Rio": 1735,
      "Rush": 1736,
      "SC": 1737,
      "Se": 1738,
      "She": 1739,
      "Sle": 1740,
      "Sub": 1741,
      "Sca": 1742,
      "Sli": 1743,
      "Sam": 1744,
      "Sop": 1745,
      "Sun": 1746,
      "Ston": 1747,
      "Soph": 1748,
      "Sting": 1749,
      "Sain": 1750,
      "Sven": 1751,
      "Sara": 1752,
      "Sick": 1753,
      "TV": 1754,
      "Tu": 1755,
      "Ton": 1756,
      "Ten": 1757,
      "Tor": 1758,
      "Tom": 1759,
      "There": 1760,
      "Tal": 1761,
      "Tit": 1762,
      "Thi": 1763,
      "Top": 1764,
      "Tran": 1765,
      "Tru": 1766,
      "Tate": 1767,
      "Tough": 1768,
      "Terre": 1769,
      "Tennessee": 1770,
      "True": 1771,
      "Tinn": 1772,
      "Uk": 1773,
      "Ur": 1774,
      "Urs": 1775,
      "Uria": 1776,
      "Utah": 1777,
      "Ve": 1778,
      "Van": 1779,
      "Vel": 1780,
      "Vil": 1781,
      "Where": 1782,
      "War": 1783,
      "Wal": 1784,
      "Will": 1785,
      "West": 1786,
      "Walt": 1787,
      "Who": 1788,
      "Yan": 1789,
      "ZZ": 1790,
      "Za": 1791,
      "Zo": 1792,
      "Zu": 1793,
      "Zag": 1794,
      "Zombi": 1795,
      "ac": 1796,
      "ati": 1797,
      "ari": 1798,
      "age": 1799,
      "aca": 1800,
      "aby": 1801,
      "ack": 1802,
      "aus": 1803,
      "abel": 1804,
      "aul": 1805,
      "aher": 1806,
      "aign": 1807,
      "aria": 1808,
      "awa": 1809,
      "be": 1810,
      "bu": 1811,
      "bra": 1812,
      "bri": 1813,
      "big": 1814,
      "bou": 1815,
      "bal": 1816,
      "bit": 1817,
      "bus": 1818,
      "bath": 1819,
      "blin": 1820,
      "bone": 1821,
      "ces": 1822,
      "cques": 1823,
      "cent": 1824,
      "cow": 1825,
      "col": 1826,
      "cock": 1827,
      "cism": 1828,
      "dd": 1829,
      "ds": 1830,
      "den": 1831,
      "dan": 1832,
      "deo": 1833,
      "dams": 1834,
      "dog": 1835,
      "ech": 1836,
      "eter": 1837,
      "eap": 1838,
      "eger": 1839,
      "etal": 1840,
      "fg": 1841,
      "ft": 1842,
      "fts": 1843,
      "fter": 1844,
      "fred": 1845,
      "fton": 1846,
      "fax": 1847,
      "frey": 1848,
      "fries": 1849,
      "fiel": 1850,
      "gi": 1851,
      "gar": 1852,
      "gum": 1853,
      "git": 1854,
      "gun": 1855,
      "gard": 1856,
      "gine": 1857,
      "gate": 1858,
      "gend": 1859,
      "gress": 1860,
      "hl": 1861,
      "high": 1862,
      "hst": 1863,
      "hua": 1864,
      "hilli": 1865,
      "hall": 1866,
      "hau": 1867,
      "hock": 1868,
      "house": 1869,
      "hesh": 1870,
      "haka": 1871,
      "ien": 1872,
      "ition": 1873,
      "irst": 1874,
      "isi": 1875,
      "ider": 1876,
      "isti": 1877,
      "iro": 1878,
      "ieri": 1879,
      "ida": 1880,
      "ids": 1881,
      "kat": 1882,
      "king": 1883,
      "keep": 1884,
      "kins": 1885,
      "klin": 1886,
      "kner": 1887,
      "kien": 1888,
      "ls": 1889,
      "lon": 1890,
      "lle": 1891,
      "lent": 1892,
      "lor": 1893,
      "lma": 1894,
      "lam": 1895,
      "lla": 1896,
      "langua": 1897,
      "lins": 1898,
      "lord": 1899,
      "lot": 1900,
      "lump": 1901,
      "lane": 1902,
      "mod": 1903,
      "mas": 1904,
      "med": 1905,
      "mel": 1906,
      "mmer": 1907,
      "mies": 1908,
      "mett": 1909,
      "muni": 1910,
      "miniseries": 1911,
      "na": 1912,
      "nt": 1913,
      "names": 1914,
      "nell": 1915,
      "nett": 1916,
      "ndiana": 1917,
      "nology": 1918,
      "oe": 1919,
      "oz": 1920,
      "ore": 1921,
      "ote": 1922,
      "oca": 1923,
      "olace": 1924,
      "oet": 1925,
      "oog": 1926,
      "ocal": 1927,
      "oey": 1928,
      "ook": 1929,
      "oged": 1930,
      "ovie": 1931,
      "pon": 1932,
      "pen": 1933,
      "pte": 1934,
      "people": 1935,
      "pson": 1936,
      "pic": 1937,
      "pel": 1938,
      "pop": 1939,
      "pher": 1940,
      "pora": 1941,
      "pend": 1942,
      "pok": 1943,
      "punk": 1944,
      "pines": 1945,
      "rt": 1946,
      "ren": 1947,
      "rin": 1948,
      "rte": 1949,
      "rence": 1950,
      "row": 1951,
      "river": 1952,
      "run": 1953,
      "rne": 1954,
      "rine": 1955,
      "rci": 1956,
      "rough": 1957,
      "sa": 1958,
      "sen": 1959,
      "ste": 1960,
      "stra": 1961,
      "sua": 1962,
      "sal": 1963,
      "sali": 1964,
      "spor": 1965,
      "sur": 1966,
      "set": 1967,
      "send": 1968,
      "sky": 1969,
      "souri": 1970,
      "sound": 1971,
      "sfiel": 1972,
      "spok": 1973,
      "ssa": 1974,
      "tz": 1975,
      "tor": 1976,
      "tol": 1977,
      "toh": 1978,
      "tland": 1979,
      "true": 1980,
      "tpel": 1981,
      "ues": 1982,
      "urs": 1983,
      "usti": 1984,
      "ula": 1985,
      "uis": 1986,
      "ung": 1987,
      "ude": 1988,
      "uston": 1989,
      "uture": 1990,
      "vor": 1991,
      "ved": 1992,
      "vic": 1993,
      "vol": 1994,
      "vit": 1995,
      "vity": 1996,
      "vlin": 1997,
      "varia": 1998,
      "wy": 1999,
      "wing": 2000,
      "wan": 2001,
      "wel": 2002,
      "wins": 2003,
      "way": 2004,
      "white": 2005,
      "west": 2006,
      "wood": 2007,
      "worth": 2008,
      "wright": 2009,
      "wrence": 2010,
      "xua": 2011,
      "xed": 2012,
      "ya": 2013,
      "yd": 2014,
      "yer": 2015,
      "yth": 2016,
      "yman": 2017,
      "yGram": 2018,
      "yrne": 2019,
      "zation": 2020,
      "zman": 2021,
      "âĢ": 2022,
      "Ġen": 2023,
      "ĠUni": 2024,
      "ĠNe": 2025,
      "ĠEng": 2026,
      "Ġup": 2027,
      "ĠQueen": 2028,
      "Ġ10": 2029,
      "Ġhock": 2030,
      "ĠâĢ": 2031,
      "Ġactor": 2032,
      "Ġadap": 2033,
      "eson": 2034,
      "esch": 2035,
      "esis": 2036,
      "eston": 2037,
      "eshire": 2038,
      "esham": 2039,
      "esmith": 2040,
      "esville": 2041,
      "heville": 2042,
      "onder": 2043,
      "onst": 2044,
      "onist": 2045,
      "onto": 2046,
      "onze": 2047,
      "tie": 2048,
      "tical": 2049,
      "tishe": 2050,
      "tivity": 2051,
      "eney": 2052,
      "enatar": 2053,
      "enhau": 2054,
      "lem": 2055,
      "lez": 2056,
      "lera": 2057,
      "lein": 2058,
      "lete": 2059,
      "leman": 2060,
      "levent": 2061,
      "rah": 2062,
      "ral": 2063,
      "ray": 2064,
      "rain": 2065,
      "rard": 2066,
      "rall": 2067,
      "rates": 2068,
      "razer": 2069,
      "ramed": 2070,
      "ralevent": 2071,
      "Ġste": 2072,
      "Ġspe": 2073,
      "Ġsys": 2074,
      "Ġseries": 2075,
      "Ġswing": 2076,
      "Ġori": 2077,
      "quin": 2078,
      "quel": 2079,
      "reb": 2080,
      "rech": 2081,
      "rella": 2082,
      "Ġnota": 2083,
      "phron": 2084,
      "grant": 2085,
      "graphic": 2086,
      "erk": 2087,
      "eron": 2088,
      "erry": 2089,
      "ervan": 2090,
      "erger": 2091,
      "erse": 2092,
      "errard": 2093,
      "odox": 2094,
      "odism": 2095,
      "ive": 2096,
      "ivia": 2097,
      "ivate": 2098,
      "ince": 2099,
      "inos": 2100,
      "inof": 2101,
      "inican": 2102,
      "inog": 2103,
      "intin": 2104,
      "incent": 2105,
      "invol": 2106,
      "ents": 2107,
      "entz": 2108,
      "condition": 2109,
      "wers": 2110,
      "Ġktrue": 2111,
      "press": 2112,
      "Ġpunk": 2113,
      "sie": 2114,
      "sil": 2115,
      "sio": 2116,
      "orm": 2117,
      "oro": 2118,
      "orig": 2119,
      "oros": 2120,
      "oria": 2121,
      "orng": 2122,
      "orges": 2123,
      "cean": 2124,
      "Ġgeo": 2125,
      "Ġgame": 2126,
      "omen": 2127,
      "ompan": 2128,
      "omach": 2129,
      "omorr": 2130,
      "ometh": 2131,
      "ompson": 2132,
      "att": 2133,
      "atra": 2134,
      "atri": 2135,
      "ather": 2136,
      "ric": 2137,
      "rie": 2138,
      "rited": 2139,
      "rica": 2140,
      "rize": 2141,
      "ribu": 2142,
      "ripte": 2143,
      "gei": 2144,
      "gets": 2145,
      "gelion": 2146,
      "geball": 2147,
      "gels": 2148,
      "ast": 2149,
      "asta": 2150,
      "asak": 2151,
      "asolin": 2152,
      "astle": 2153,
      "asdan": 2154,
      "askat": 2155,
      "mation": 2156,
      "maica": 2157,
      "marine": 2158,
      "Ġedi": 2159,
      "chop": 2160,
      "chaus": 2161,
      "chcock": 2162,
      "Ġcontin": 2163,
      "Ġcontemporary": 2164,
      "tum": 2165,
      "tus": 2166,
      "tuart": 2167,
      "tume": 2168,
      "turalevent": 2169,
      "derson": 2170,
      "derdog": 2171,
      "oscow": 2172,
      "ostume": 2173,
      "owell": 2174,
      "owlands": 2175,
      "imson": 2176,
      "eech": 2177,
      "ubin": 2178,
      "trane": 2179,
      "Ġwith": 2180,
      "ighieri": 2181,
      "eepers": 2182,
      "blegum": 2183,
      "Ġentity": 2184,
      "lme": 2185,
      "lmighty": 2186,
      "ano": 2187,
      "any": 2188,
      "anic": 2189,
      "anel": 2190,
      "ancer": 2191,
      "aniz": 2192,
      "car": 2193,
      "card": 2194,
      "Ġlife": 2195,
      "lier": 2196,
      "lica": 2197,
      "lity": 2198,
      "liam": 2199,
      "liot": 2200,
      "ster": 2201,
      "stal": 2202,
      "states": 2203,
      "stop": 2204,
      "stall": 2205,
      "stribu": 2206,
      "Ġmed": 2207,
      "Ġmem": 2208,
      "Ġminiseries": 2209,
      "Ġmetal": 2210,
      "ĠCan": 2211,
      "ĠCam": 2212,
      "ĠCun": 2213,
      "ĠCran": 2214,
      "ĠCox": 2215,
      "ĠCru": 2216,
      "ĠCana": 2217,
      "ĠCreek": 2218,
      "ĠCountry": 2219,
      "ĠCurtis": 2220,
      "ĠCari": 2221,
      "ĠCurs": 2222,
      "ĠCervan": 2223,
      "ĠCompan": 2224,
      "ĠCather": 2225,
      "ĠCastle": 2226,
      "ofess": 2227,
      "ous": 2228,
      "ours": 2229,
      "oucho": 2230,
      "ouisi": 2231,
      "oulez": 2232,
      "ĠSG": 2233,
      "ĠSol": 2234,
      "ĠSal": 2235,
      "ĠShi": 2236,
      "ĠSay": 2237,
      "ĠSith": 2238,
      "ĠSpe": 2239,
      "ĠSpi": 2240,
      "ĠSab": 2241,
      "ĠSinger": 2242,
      "ĠSart": 2243,
      "ĠSky": 2244,
      "ĠSeger": 2245,
      "ĠSolace": 2246,
      "ĠSometh": 2247,
      "ĠSaskat": 2248,
      "ĠSchop": 2249,
      "ĠStuart": 2250,
      "ĠScard": 2251,
      "arp": 2252,
      "arre": 2253,
      "arta": 2254,
      "arles": 2255,
      "arone": 2256,
      "arke": 2257,
      "arlo": 2258,
      "usionist": 2259,
      "nii": 2260,
      "nick": 2261,
      "nius": 2262,
      "Ġintern": 2263,
      "amos": 2264,
      "ambor": 2265,
      "ammi": 2266,
      "ambig": 2267,
      "ilmed": 2268,
      "tation": 2269,
      "thor": 2270,
      "thal": 2271,
      "this": 2272,
      "lake": 2273,
      "labora": 2274,
      "lativity": 2275,
      "uation": 2276,
      "edi": 2277,
      "edro": 2278,
      "edman": 2279,
      "edian": 2280,
      "edish": 2281,
      "edek": 2282,
      "edding": 2283,
      "edkin": 2284,
      "icine": 2285,
      "icio": 2286,
      "ichel": 2287,
      "olo": 2288,
      "olla": 2289,
      "oline": 2290,
      "oldm": 2291,
      "olkien": 2292,
      "elch": 2293,
      "elty": 2294,
      "elus": 2295,
      "eland": 2296,
      "ellin": 2297,
      "elberg": 2298,
      "Ġcounty": 2299,
      "Ġcul": 2300,
      "Ġclassical": 2301,
      "Ġcostume": 2302,
      "Ġcancer": 2303,
      "alin": 2304,
      "alues": 2305,
      "alization": 2306,
      "rysali": 2307,
      "byshire": 2308,
      "ĠRun": 2309,
      "ĠRath": 2310,
      "ĠRob": 2311,
      "ĠRock": 2312,
      "ĠRight": 2313,
      "ĠRank": 2314,
      "ĠRoll": 2315,
      "ĠRachman": 2316,
      "ĠRibbon": 2317,
      "ĠRider": 2318,
      "ĠResham": 2319,
      "ĠRonst": 2320,
      "ĠRubin": 2321,
      "ĠRedman": 2322,
      "ume": 2323,
      "ummy": 2324,
      "umentary": 2325,
      "isand": 2326,
      "isode": 2327,
      "iscip": 2328,
      "istem": 2329,
      "issouri": 2330,
      "ĠAir": 2331,
      "ĠAtten": 2332,
      "ĠAug": 2333,
      "ĠAbou": 2334,
      "ĠAfter": 2335,
      "ĠAway": 2336,
      "ĠAquin": 2337,
      "ĠAlmighty": 2338,
      "ĠBro": 2339,
      "ĠBad": 2340,
      "ĠBak": 2341,
      "ĠBru": 2342,
      "ĠBest": 2343,
      "ĠBass": 2344,
      "ĠBhatt": 2345,
      "ĠBank": 2346,
      "ĠBlack": 2347,
      "ĠBell": 2348,
      "ĠBie": 2349,
      "ĠBride": 2350,
      "ĠBae": 2351,
      "ĠBuel": 2352,
      "ĠBuff": 2353,
      "ĠBachman": 2354,
      "ĠBaby": 2355,
      "ĠByrne": 2356,
      "ĠBenatar": 2357,
      "ĠBrech": 2358,
      "ĠBerger": 2359,
      "ĠBorges": 2360,
      "ĠBoulez": 2361,
      "ĠBlake": 2362,
      "ĠBelus": 2363,
      "ĠMusic": 2364,
      "ĠMur": 2365,
      "ĠMedia": 2366,
      "ĠMun": 2367,
      "ĠMot": 2368,
      "ĠMary": 2369,
      "ĠMars": 2370,
      "ĠMai": 2371,
      "ĠMov": 2372,
      "ĠMaher": 2373,
      "ĠMovie": 2374,
      "ĠMinog": 2375,
      "ĠMoscow": 2376,
      "ĠMichel": 2377,
      "ĠMummy": 2378,
      "ĠMissouri": 2379,
      "ĠWen": 2380,
      "ĠWord": 2381,
      "ĠWest": 2382,
      "ĠWax": 2383,
      "ĠWood": 2384,
      "ĠWorld": 2385,
      "ĠWings": 2386,
      "ĠWain": 2387,
      "ĠWho": 2388,
      "ĠWiz": 2389,
      "ĠWright": 2390,
      "ĠWayne": 2391,
      "ĠWeap": 2392,
      "ĠWonder": 2393,
      "ĠWentz": 2394,
      "ĠWomen": 2395,
      "ĠWatt": 2396,
      "ĠWedding": 2397,
      "ĠWelch": 2398,
      "oduction": 2399,
      "itz": 2400,
      "itts": 2401,
      "itman": 2402,
      "itzer": 2403,
      "itchcock": 2404,
      "lustra": 2405,
      "lutie": 2406,
      "dun": 2407,
      "ducting": 2408,
      "ĠKher": 2409,
      "ĠKass": 2410,
      "ĠKaz": 2411,
      "ĠKerou": 2412,
      "ĠKai": 2413,
      "ĠKilkenny": 2414,
      "ĠKids": 2415,
      "ĠKlump": 2416,
      "ĠKlein": 2417,
      "ĠKrall": 2418,
      "ĠKorng": 2419,
      "ĠKasdan": 2420,
      "ĠKeepers": 2421,
      "ĠKnick": 2422,
      "ĠStar": 2423,
      "ĠStop": 2424,
      "ĠStorm": 2425,
      "ĠStamos": 2426,
      "composer": 2427,
      "combe": 2428,
      "communi": 2429,
      "comedian": 2430,
      "Thelma": 2431,
      "Theatri": 2432,
      "ĠDeep": 2433,
      "ĠDun": 2434,
      "ĠDove": 2435,
      "ĠDav": 2436,
      "ĠDress": 2437,
      "ĠDuff": 2438,
      "ĠDance": 2439,
      "ĠDouri": 2440,
      "ĠDisne": 2441,
      "ĠDhaka": 2442,
      "ĠDriver": 2443,
      "ĠDesch": 2444,
      "ordon": 2445,
      "ordan": 2446,
      "bion": 2447,
      "bient": 2448,
      "bian": 2449,
      "lyn": 2450,
      "lypse": 2451,
      "lywood": 2452,
      "ngdu": 2453,
      "ĠPear": 2454,
      "ĠPara": 2455,
      "ĠPart": 2456,
      "ĠPhel": 2457,
      "ĠPayne": 2458,
      "ĠPhilli": 2459,
      "ĠPlot": 2460,
      "ĠPerry": 2461,
      "ĠPrize": 2462,
      "ĠPasolin": 2463,
      "ĠPowell": 2464,
      "ĠPedro": 2465,
      "ĠPalin": 2466,
      "ĠPitts": 2467,
      "ushu": 2468,
      "ĠLa": 2469,
      "ĠLing": 2470,
      "ĠLos": 2471,
      "ĠLess": 2472,
      "ĠLad": 2473,
      "ĠLau": 2474,
      "ĠLant": 2475,
      "ĠLlo": 2476,
      "ĠLov": 2477,
      "ĠLuc": 2478,
      "ĠLittle": 2479,
      "ĠLancashire": 2480,
      "ĠLuis": 2481,
      "ĠLast": 2482,
      "ĠLouisi": 2483,
      "dey": 2484,
      "deis": 2485,
      "deau": 2486,
      "derella": 2487,
      "ĠHeep": 2488,
      "ĠHur": 2489,
      "ĠHop": 2490,
      "ĠHap": 2491,
      "ĠHill": 2492,
      "ĠHamp": 2493,
      "ĠHold": 2494,
      "ĠHate": 2495,
      "ĠHist": 2496,
      "ĠHood": 2497,
      "ĠHag": 2498,
      "ĠHove": 2499,
      "ĠHem": 2500,
      "ĠHouse": 2501,
      "ĠHeck": 2502,
      "ĠHull": 2503,
      "ĠHSC": 2504,
      "ĠHook": 2505,
      "ĠHuston": 2506,
      "ĠHours": 2507,
      "ĠHume": 2508,
      "ĠHitchcock": 2509,
      "rora": 2510,
      "room": 2511,
      "roat": 2512,
      "roke": 2513,
      "rohl": 2514,
      "rooged": 2515,
      "andler": 2516,
      "iversal": 2517,
      "Neil": 2518,
      "Neve": 2519,
      "Nether": 2520,
      "Unfa": 2521,
      "Universal": 2522,
      "ĠFat": 2523,
      "ĠFord": 2524,
      "ĠFran": 2525,
      "ĠFond": 2526,
      "ĠFock": 2527,
      "ĠFair": 2528,
      "ĠFull": 2529,
      "ĠFamily": 2530,
      "ĠFaul": 2531,
      "ĠFirst": 2532,
      "ĠFlor": 2533,
      "ĠFore": 2534,
      "ĠFuture": 2535,
      "ĠFramed": 2536,
      "ĠFilmed": 2537,
      "ĠFlutie": 2538,
      "ĠIce": 2539,
      "ĠIdi": 2540,
      "ĠIsh": 2541,
      "ĠIzz": 2542,
      "ĠIda": 2543,
      "ĠIll": 2544,
      "ĠIndiana": 2545,
      "ĠTop": 2546,
      "ĠTun": 2547,
      "ĠTru": 2548,
      "ĠTank": 2549,
      "ĠTown": 2550,
      "ĠTrue": 2551,
      "ĠTech": 2552,
      "ĠTwins": 2553,
      "ĠTintin": 2554,
      "ĠToro": 2555,
      "ĠTomorr": 2556,
      "ĠTambor": 2557,
      "ĠTolkien": 2558,
      "urn": 2559,
      "uru": 2560,
      "urch": 2561,
      "urence": 2562,
      "vet": 2563,
      "ĠOz": 2564,
      "ĠOrder": 2565,
      "ĠOrth": 2566,
      "ĠOne": 2567,
      "ĠOff": 2568,
      "ĠOregon": 2569,
      "ĠOrig": 2570,
      "ĠOrci": 2571,
      "ĠOcean": 2572,
      "ĠOedek": 2573,
      "mona": 2574,
      "mond": 2575,
      "mons": 2576,
      "vist": 2577,
      "viron": 2578,
      "ĠGir": 2579,
      "ĠGone": 2580,
      "ĠGreen": 2581,
      "ĠGold": 2582,
      "ĠGreek": 2583,
      "ĠGibbon": 2584,
      "ĠGoet": 2585,
      "ĠGren": 2586,
      "ĠGrazer": 2587,
      "ĠGerrard": 2588,
      "ĠGoldm": 2589,
      "ĠGordon": 2590,
      "ĠGrohl": 2591,
      "ĠGuru": 2592,
      "1900": 2593,
      "1904": 2594,
      "1939": 2595,
      "opatra": 2596,
      "ĠYank": 2597,
      "Maury": 2598,
      "Mahesh": 2599,
      "Mayer": 2600,
      "dian": 2601,
      "distribu": 2602,
      "dious": 2603,
      "merste": 2604,
      "essa": 2605,
      "aykin": 2606,
      "shine": 2607,
      "Ġband": 2608,
      "Ġbut": 2609,
      "bellion": 2610,
      "eto": 2611,
      "etnames": 2612,
      "ĠReven": 2613,
      "ĠReturn": 2614,
      "ĠReitman": 2615,
      "ĠRebellion": 2616,
      "adt": 2617,
      "adle": 2618,
      "adines": 2619,
      "adrun": 2620,
      "adowlands": 2621,
      "ĠJane": 2622,
      "ĠJoe": 2623,
      "ĠJonze": 2624,
      "ĠJerse": 2625,
      "ĠJarre": 2626,
      "ĠJedi": 2627,
      "ĠJolla": 2628,
      "ĠJordan": 2629,
      "ĠNow": 2630,
      "ĠNight": 2631,
      "ĠNav": 2632,
      "ĠNug": 2633,
      "ĠNiel": 2634,
      "ĠNyk": 2635,
      "ĠName": 2636,
      "ĠNational": 2637,
      "ĠNyman": 2638,
      "ĠNesmith": 2639,
      "athlon": 2640,
      "Roots": 2641,
      "Roadrun": 2642,
      "berry": 2643,
      "line": 2644,
      "ney": 2645,
      "nemies": 2646,
      "rano": 2647,
      "Alan": 2648,
      "Alger": 2649,
      "Alto": 2650,
      "Alfred": 2651,
      "Algi": 2652,
      "Allent": 2653,
      "verly": 2654,
      "verine": 2655,
      "verEn": 2656,
      "ĠEducation": 2657,
      "ĠEmmer": 2658,
      "ĠEphron": 2659,
      "ĠEliot": 2660,
      "ĠEnemies": 2661,
      "2001": 2662,
      "2002": 2663,
      "2005": 2664,
      "2007": 2665,
      "Chap": 2666,
      "Chick": 2667,
      "Christ": 2668,
      "Chaka": 2669,
      "Chung": 2670,
      "Cheshire": 2671,
      "Charlo": 2672,
      "Chrysali": 2673,
      "aking": 2674,
      "akhst": 2675,
      "iths": 2676,
      "ithful": 2677,
      "vance": 2678,
      "Ġcategory": 2679,
      "ĠRecordings": 2680,
      "Jaws": 2681,
      "Jacques": 2682,
      "Jamaica": 2683,
      "Scot": 2684,
      "Scrooged": 2685,
      "gery": 2686,
      "ttesville": 2687,
      "ttany": 2688,
      "ĠCollins": 2689,
      "ĠColtrane": 2690,
      "ĠCollabora": 2691,
      "2011": 2692,
      "Anne": 2693,
      "Anup": 2694,
      "Anje": 2695,
      "Annie": 2696,
      "Angels": 2697,
      "Into": 2698,
      "Indie": 2699,
      "Indiana": 2700,
      "Invic": 2701,
      "Johannes": 2702,
      "Stomach": 2703,
      "Stripte": 2704,
      "Stroke": 2705,
      "ghton": 2706,
      "pects": 2707,
      "sets": 2708,
      "enna": 2709,
      "1993": 2710,
      "1998": 2711,
      "Bright": 2712,
      "British": 2713,
      "Brigit": 2714,
      "Brittany": 2715,
      "Brighton": 2716,
      "Jeff": 2717,
      "Jewel": 2718,
      "Regin": 2719,
      "Republic": 2720,
      "Regg": 2721,
      "Return": 2722,
      "Relativity": 2723,
      "matogra": 2724,
      "ĠVow": 2725,
      "ĠVance": 2726,
      "ĠVocal": 2727,
      "ĠVincent": 2728,
      "ĠValues": 2729,
      "ampett": 2730,
      "Johns": 2731,
      "Michigan": 2732,
      "Richie": 2733,
      "Superman": 2734,
      "ffen": 2735,
      "Ġdel": 2736,
      "Ġdesign": 2737,
      "Ġdise": 2738,
      "Ġdiscip": 2739,
      "ivier": 2740,
      "ĠMcFer": 2741,
      "ĠMcQueen": 2742,
      "ĠMcDorman": 2743,
      "ĠMcGinley": 2744,
      "Austin": 2745,
      "Autoh": 2746,
      "Author": 2747,
      "Aurora": 2748,
      "Donna": 2749,
      "Frank": 2750,
      "Frances": 2751,
      "Leban": 2752,
      "Lehigh": 2753,
      "Levit": 2754,
      "Lethal": 2755,
      "Page": 2756,
      "Paci": 2757,
      "Palme": 2758,
      "Shashi": 2759,
      "Shammi": 2760,
      "Shadowlands": 2761,
      "Step": 2762,
      "Steven": 2763,
      "Stevie": 2764,
      "ables": 2765,
      "burgh": 2766,
      "cialization": 2767,
      "chelle": 2768,
      "chewan": 2769,
      "kees": 2770,
      "mentalist": 2771,
      "ĠZem": 2772,
      "ĠZombi": 2773,
      "Ġjg": 2774,
      "Ġjaz": 2775,
      "Ġjack": 2776,
      "ondock": 2777,
      "indhouse": 2778,
      "ĠCoen": 2779,
      "ĠCoates": 2780,
      "ĠCook": 2781,
      "ĠColeman": 2782,
      "ĠAdam": 2783,
      "ĠAdams": 2784,
      "ĠAdvance": 2785,
      "ĠAlbert": 2786,
      "ĠAlighieri": 2787,
      "ĠAlbion": 2788,
      "ĠPicture": 2789,
      "Roberto": 2790,
      "Concord": 2791,
      "Contemporary": 2792,
      "Conducting": 2793,
      "Grace": 2794,
      "Graham": 2795,
      "Jules": 2796,
      "Justin": 2797,
      "Judd": 2798,
      "Pier": 2799,
      "Pieter": 2800,
      "Pirates": 2801,
      "istad": 2802,
      "olicism": 2803,
      "Ġhuman": 2804,
      "endar": 2805,
      "endale": 2806,
      "ĠChrist": 2807,
      "ĠCharles": 2808,
      "ĠChandler": 2809,
      "ĠChurch": 2810,
      "ĠChaykin": 2811,
      "ĠClass": 2812,
      "ĠClarke": 2813,
      "ĠClampett": 2814,
      "ĠAnand": 2815,
      "ĠAnasta": 2816,
      "ĠAnderson": 2817,
      "ĠThames": 2818,
      "ĠThomas": 2819,
      "ĠThings": 2820,
      "ĠThompson": 2821,
      "ĠThroat": 2822,
      "Romance": 2823,
      "Romanian": 2824,
      "Bai": 2825,
      "Back": 2826,
      "Bavaria": 2827,
      "Basil": 2828,
      "Brad": 2829,
      "Brave": 2830,
      "Cancer": 2831,
      "Dave": 2832,
      "Devin": 2833,
      "Delaw": 2834,
      "Kaneto": 2835,
      "Souther": 2836,
      "agged": 2837,
      "borough": 2838,
      "designer": 2839,
      "designed": 2840,
      "uez": 2841,
      "venmi": 2842,
      "ĠUpon": 2843,
      "ĠUsua": 2844,
      "lipoli": 2845,
      "lipinos": 2846,
      "ĠCarol": 2847,
      "ĠCarmod": 2848,
      "ĠCapra": 2849,
      "ĠCapote": 2850,
      "illers": 2851,
      "ĠWinfrey": 2852,
      "ĠDonner": 2853,
      "ĠLeon": 2854,
      "ĠLeary": 2855,
      "ĠLegend": 2856,
      "Starter": 2857,
      "Stargate": 2858,
      "subjects": 2859,
      "Addams": 2860,
      "Amblin": 2861,
      "Ambient": 2862,
      "Amistad": 2863,
      "Asheville": 2864,
      "Baton": 2865,
      "Batman": 2866,
      "Battle": 2867,
      "Comoros": 2868,
      "Carmel": 2869,
      "Carrie": 2870,
      "Caroline": 2871,
      "Chiang": 2872,
      "Denis": 2873,
      "Dante": 2874,
      "Dannii": 2875,
      "Georg": 2876,
      "George": 2877,
      "Geffen": 2878,
      "Joshua": 2879,
      "Lawrence": 2880,
      "Laurence": 2881,
      "Private": 2882,
      "Prince": 2883,
      "Production": 2884,
      "Patti": 2885,
      "Patch": 2886,
      "Raymond": 2887,
      "Sonic": 2888,
      "Songwriter": 2889,
      "Sonny": 2890,
      "Spider": 2891,
      "Spike": 2892,
      "Spirited": 2893,
      "Video": 2894,
      "Vietnames": 2895,
      "Vienna": 2896,
      "Valve": 2897,
      "avy": 2898,
      "bage": 2899,
      "bbean": 2900,
      "dism": 2901,
      "diso": 2902,
      "disambig": 2903,
      "miya": 2904,
      "nesota": 2905,
      "thew": 2906,
      "thers": 2907,
      "uga": 2908,
      "ĠUnderdog": 2909,
      "lexia": 2910,
      "production": 2911,
      "maritz": 2912,
      "ĠCampaign": 2913,
      "ĠSpy": 2914,
      "ĠSpeech": 2915,
      "ĠSparta": 2916,
      "Ġcinema": 2917,
      "ĠRoth": 2918,
      "ĠRoger": 2919,
      "ĠRochelle": 2920,
      "ĠRivers": 2921,
      "ĠArmstrong": 2922,
      "ĠBeach": 2923,
      "ĠBurton": 2924,
      "ĠBurnett": 2925,
      "ĠBurrough": 2926,
      "ĠMonty": 2927,
      "ĠMonica": 2928,
      "ĠMonkees": 2929,
      "ĠMann": 2930,
      "ĠMansfiel": 2931,
      "ĠWolfg": 2932,
      "ĠWolsky": 2933,
      "ĠWolverine": 2934,
      "ĠWild": 2935,
      "ĠDead": 2936,
      "ĠDebus": 2937,
      "ĠDevlin": 2938,
      "ĠParker": 2939,
      "ĠIsland": 2940,
      "ĠGrit": 2941,
      "1976": 2942,
      "1977": 2943,
      "1978": 2944,
      "1980": 2945,
      "1988": 2946,
      "1989": 2947,
      "ĠJohn": 2948,
      "ĠJohar": 2949,
      "ĠJohannes": 2950,
      "Japanese": 2951,
      "ĠMcKean": 2952,
      "ĠMcKinley": 2953,
      "ĠMcKimson": 2954,
      "ĠAllen": 2955,
      "ĠAllman": 2956,
      "Southwest": 2957,
      "African": 2958,
      "Africa": 2959,
      "Around": 2960,
      "Armstrong": 2961,
      "Berlin": 2962,
      "Bertol": 2963,
      "Corey": 2964,
      "Coburg": 2965,
      "Cinema": 2966,
      "Cinematogra": 2967,
      "Dust": 2968,
      "DuPage": 2969,
      "Domino": 2970,
      "Dominican": 2971,
      "Drummer": 2972,
      "Environ": 2973,
      "Epic": 2974,
      "Epistem": 2975,
      "Eriq": 2976,
      "Erich": 2977,
      "Evangelion": 2978,
      "Ferris": 2979,
      "Gloria": 2980,
      "Glendale": 2981,
      "Groucho": 2982,
      "Grindhouse": 2983,
      "Gene": 2984,
      "Genesis": 2985,
      "Garry": 2986,
      "Garbage": 2987,
      "Goldwy": 2988,
      "Harold": 2989,
      "Harlem": 2990,
      "Isabel": 2991,
      "Islam": 2992,
      "Jimmy": 2993,
      "Kazan": 2994,
      "Kazakhst": 2995,
      "Loudon": 2996,
      "Linda": 2997,
      "Lindy": 2998,
      "Mike": 2999,
      "Mixed": 3000,
      "Montpel": 3001,
      "Monster": 3002,
      "Minnie": 3003,
      "Minnesota": 3004,
      "Martin": 3005,
      "Marvin": 3006,
      "Pete": 3007,
      "Peter": 3008,
      "Poland": 3009,
      "PolyGram": 3010,
      "Swedish": 3011,
      "Switzer": 3012,
      "Serpic": 3013,
      "Sergei": 3014,
      "Santa": 3015,
      "Surf": 3016,
      "Surgery": 3017,
      "Treat": 3018,
      "Trevor": 3019,
      "Timbal": 3020,
      "Woody": 3021,
      "Woodrow": 3022,
      "boy": 3023,
      "board": 3024,
      "dapest": 3025,
      "epers": 3026,
      "eckis": 3027,
      "fiction": 3028,
      "shek": 3029,
      "uania": 3030,
      "within": 3031,
      "ykillers": 3032,
      "Ġ21": 3033,
      "Ġ80": 3034,
      "organiz": 3035,
      "riguez": 3036,
      "ricane": 3037,
      "ĠCheadle": 3038,
      "ĠCheney": 3039,
      "ĠCornell": 3040,
      "ĠCorpora": 3041,
      "ĠShow": 3042,
      "ĠShagged": 3043,
      "ĠSimon": 3044,
      "ĠSimmons": 3045,
      "ĠSambora": 3046,
      "ĠSamberg": 3047,
      "ĠSussex": 3048,
      "ĠSuspects": 3049,
      "ĠRodden": 3050,
      "ĠRodriguez": 3051,
      "ĠRabin": 3052,
      "ĠRabbit": 3053,
      "ĠRajendar": 3054,
      "ĠRossellin": 3055,
      "ĠBoys": 3056,
      "ĠBoondock": 3057,
      "ĠMarx": 3058,
      "ĠMarch": 3059,
      "ĠMiller": 3060,
      "ĠMilano": 3061,
      "ĠWalton": 3062,
      "ĠWalston": 3063,
      "ĠWhitelaw": 3064,
      "ĠStreep": 3065,
      "ĠStreisand": 3066,
      "ĠDiamondDust": 3067,
      "ĠPalace": 3068,
      "ĠPaolo": 3069,
      "ĠPowers": 3070,
      "ĠPovenmi": 3071,
      "ĠPreston": 3072,
      "ĠProfess": 3073,
      "ĠHammett": 3074,
      "ĠHammerste": 3075,
      "ĠHauer": 3076,
      "ĠHaute": 3077,
      "ĠFrith": 3078,
      "ĠFriedkin": 3079,
      "ĠOliver": 3080,
      "ĠOlivier": 3081,
      "ĠGuin": 3082,
      "ĠGuys": 3083,
      "ĠGuns": 3084,
      "1927": 3085,
      "1928": 3086,
      "Mario": 3087,
      "Marilyn": 3088,
      "Robin": 3089,
      "ĠEpworth": 3090,
      "ĠEpisode": 3091,
      "ĠExpend": 3092,
      "ĠExpress": 3093,
      "Jackie": 3094,
      "Inside": 3095,
      "Insidious": 3096,
      "ĠGriffin": 3097,
      "ĠGriffiths": 3098,
      "European": 3099,
      "Hunterdon": 3100,
      "Philippines": 3101,
      "ABC": 3102,
      "Absur": 3103,
      "Apoca": 3104,
      "Avatar": 3105,
      "Auburn": 3106,
      "Animation": 3107,
      "Aamir": 3108,
      "Athlete": 3109,
      "Alain": 3110,
      "Alyssa": 3111,
      "American": 3112,
      "Airline": 3113,
      "Avant": 3114,
      "Beverly": 3115,
      "Biathlon": 3116,
      "Budapest": 3117,
      "Benicio": 3118,
      "Bleach": 3119,
      "Breaking": 3120,
      "Bubblegum": 3121,
      "Barbra": 3122,
      "Billy": 3123,
      "Burgun": 3124,
      "Buncombe": 3125,
      "Bette": 3126,
      "Brandeis": 3127,
      "Billie": 3128,
      "Boxing": 3129,
      "Businessperson": 3130,
      "Boise": 3131,
      "Bishop": 3132,
      "Bassist": 3133,
      "Bisexua": 3134,
      "Chengdu": 3135,
      "Cleopatra": 3136,
      "Cremona": 3137,
      "Cinderella": 3138,
      "Central": 3139,
      "Corpse": 3140,
      "Crime": 3141,
      "Cowboy": 3142,
      "Clifton": 3143,
      "Court": 3144,
      "Claude": 3145,
      "Cedric": 3146,
      "Crystal": 3147,
      "Croati": 3148,
      "Cayuga": 3149,
      "Catholicism": 3150,
      "Celebri": 3151,
      "Comedian": 3152,
      "Czech": 3153,
      "Chattanoog": 3154,
      "Dystop": 3155,
      "Dragon": 3156,
      "Derbyshire": 3157,
      "Dodgeball": 3158,
      "Diving": 3159,
      "Doris": 3160,
      "Doug": 3161,
      "Delft": 3162,
      "Dumfries": 3163,
      "Dune": 3164,
      "Diana": 3165,
      "Daddy": 3166,
      "Dyslexia": 3167,
      "Documentary": 3168,
      "Diamonds": 3169,
      "Dashiell": 3170,
      "Elton": 3171,
      "Eastern": 3172,
      "Earth": 3173,
      "Ethan": 3174,
      "Everyth": 3175,
      "Enya": 3176,
      "EDtv": 3177,
      "Filipinos": 3178,
      "Flea": 3179,
      "Force": 3180,
      "Fairfax": 3181,
      "Gregg": 3182,
      "Gallipoli": 3183,
      "Gandhi": 3184,
      "Gillian": 3185,
      "Heavy": 3186,
      "Herbert": 3187,
      "Hindi": 3188,
      "Howl": 3189,
      "Himesh": 3190,
      "Hollywood": 3191,
      "Hilary": 3192,
      "Heartland": 3193,
      "Hamilton": 3194,
      "Illustra": 3195,
      "Irish": 3196,
      "Ithaca": 3197,
      "Jiang": 3198,
      "Karan": 3199,
      "Kyushu": 3200,
      "Kingston": 3201,
      "Kundun": 3202,
      "Kathy": 3203,
      "Kirk": 3204,
      "Keyboard": 3205,
      "KwaZu": 3206,
      "Looper": 3207,
      "Lynyrd": 3208,
      "Lesbian": 3209,
      "Lisa": 3210,
      "Lithuania": 3211,
      "Logan": 3212,
      "London": 3213,
      "Lucille": 3214,
      "Merle": 3215,
      "Modesto": 3216,
      "Matthew": 3217,
      "Miguel": 3218,
      "Moulin": 3219,
      "Musical": 3220,
      "Mountain": 3221,
      "Mandolin": 3222,
      "Maryland": 3223,
      "Meryl": 3224,
      "Methodism": 3225,
      "Munich": 3226,
      "Mushroom": 3227,
      "Natal": 3228,
      "Nutty": 3229,
      "Nagasak": 3230,
      "Olivia": 3231,
      "Once": 3232,
      "Oprah": 3233,
      "Oscar": 3234,
      "Oakland": 3235,
      "Opera": 3236,
      "Phil": 3237,
      "Portishe": 3238,
      "Priest": 3239,
      "Post": 3240,
      "Parliam": 3241,
      "Pedal": 3242,
      "Progress": 3243,
      "Piano": 3244,
      "Political": 3245,
      "Poughkeep": 3246,
      "Quantum": 3247,
      "Raquel": 3248,
      "Rules": 3249,
      "Rowing": 3250,
      "Rango": 3251,
      "Roland": 3252,
      "Rutger": 3253,
      "Sea": 3254,
      "Sleepers": 3255,
      "Submarine": 3256,
      "Scary": 3257,
      "Slice": 3258,
      "Soprano": 3259,
      "Sunshine": 3260,
      "Stoner": 3261,
      "Sophisti": 3262,
      "Saint": 3263,
      "Sarah": 3264,
      "Sicko": 3265,
      "Tufts": 3266,
      "Tony": 3267,
      "Tenor": 3268,
      "Toronto": 3269,
      "Talk": 3270,
      "Titanic": 3271,
      "Thirte": 3272,
      "Trance": 3273,
      "Truman": 3274,
      "Tinnu": 3275,
      "Ukrain": 3276,
      "Urban": 3277,
      "Ursula": 3278,
      "Uriah": 3279,
      "Veer": 3280,
      "Vanessa": 3281,
      "Velvet": 3282,
      "Vilnius": 3283,
      "Warlord": 3284,
      "Walter": 3285,
      "Yanni": 3286,
      "Zaara": 3287,
      "Zooey": 3288,
      "Zagreb": 3289,
      "Zombieland": 3290,
      "agement": 3291,
      "color": 3292,
      "garde": 3293,
      "gineer": 3294,
      "language": 3295,
      "ozawa": 3296,
      "pened": 3297,
      "sport": 3298,
      "spoken": 3299,
      "ustine": 3300,
      "Ġengineer": 3301,
      "ĠUnion": 3302,
      "ĠNeverEn": 3303,
      "ĠEngagement": 3304,
      "Ġupon": 3305,
      "ĠQueens": 3306,
      "Ġhockey": 3307,
      "ĠâĢĵ": 3308,
      "Ġadaptation": 3309,
      "enhauer": 3310,
      "lerable": 3311,
      "Ġsteel": 3312,
      "Ġspecialization": 3313,
      "Ġsystem": 3314,
      "Ġorigin": 3315,
      "Ġnotable": 3316,
      "inoff": 3317,
      "involved": 3318,
      "Ġktrueman": 3319,
      "origin": 3320,
      "Ġgeographic": 3321,
      "Ġedited": 3322,
      "chausen": 3323,
      "Ġcontinents": 3324,
      "Ġmedicine": 3325,
      "Ġmember": 3326,
      "ĠCameron": 3327,
      "ĠCundey": 3328,
      "ĠCranston": 3329,
      "ĠCruelty": 3330,
      "ĠCanadian": 3331,
      "ĠCaribbean": 3332,
      "ĠCurse": 3333,
      "ĠCervantes": 3334,
      "ĠCompany": 3335,
      "ĠCatherine": 3336,
      "ĠSolti": 3337,
      "ĠSalle": 3338,
      "ĠShiozawa": 3339,
      "ĠSpector": 3340,
      "ĠSpielberg": 3341,
      "ĠSabbath": 3342,
      "ĠSartre": 3343,
      "ĠSkynyrd": 3344,
      "ĠSomething": 3345,
      "ĠSaskatchewan": 3346,
      "ĠSchopenhauer": 3347,
      "ĠScardino": 3348,
      "Ġinternational": 3349,
      "Ġculturalevent": 3350,
      "ĠRathbone": 3351,
      "ĠRobeson": 3352,
      "ĠRankin": 3353,
      "ĠRollins": 3354,
      "ĠRachmaninoff": 3355,
      "ĠReshammiya": 3356,
      "ĠRonstadt": 3357,
      "ĠAirlines": 3358,
      "ĠAttenborough": 3359,
      "ĠAugustine": 3360,
      "ĠAbout": 3361,
      "ĠAquinas": 3362,
      "ĠBrothers": 3363,
      "ĠBaker": 3364,
      "ĠBruges": 3365,
      "ĠBieber": 3366,
      "ĠBaez": 3367,
      "ĠBueller": 3368,
      "ĠBuffett": 3369,
      "ĠBrecht": 3370,
      "ĠBelushi": 3371,
      "ĠMurray": 3372,
      "ĠMunchausen": 3373,
      "ĠMotown": 3374,
      "ĠMarshall": 3375,
      "ĠMailer": 3376,
      "ĠMoving": 3377,
      "ĠMinogue": 3378,
      "ĠWainwright": 3379,
      "ĠWizard": 3380,
      "ĠWeapon": 3381,
      "ĠKassar": 3382,
      "ĠKazan": 3383,
      "ĠKerouac": 3384,
      "ĠKlumps": 3385,
      "ĠKorngold": 3386,
      "ĠKnicks": 3387,
      "communication": 3388,
      "Theatrical": 3389,
      "ĠDuncan": 3390,
      "ĠDavis": 3391,
      "ĠDresser": 3392,
      "ĠDourif": 3393,
      "ĠDisney": 3394,
      "ĠDeschanel": 3395,
      "ĠPearl": 3396,
      "ĠParadiso": 3397,
      "ĠPhelps": 3398,
      "ĠPhillips": 3399,
      "ĠPasolini": 3400,
      "ĠPittsburgh": 3401,
      "ĠLessing": 3402,
      "ĠLadykillers": 3403,
      "ĠLantz": 3404,
      "ĠLloyd": 3405,
      "ĠLovitz": 3406,
      "ĠLucas": 3407,
      "ĠLouisiana": 3408,
      "ĠHurricane": 3409,
      "ĠHopkins": 3410,
      "ĠHappened": 3411,
      "ĠHills": 3412,
      "ĠHampton": 3413,
      "ĠHoldings": 3414,
      "ĠHistory": 3415,
      "ĠHaggard": 3416,
      "ĠHemming": 3417,
      "ĠHooker": 3418,
      "Netherlands": 3419,
      "Unfaithful": 3420,
      "ĠFranklin": 3421,
      "ĠFonda": 3422,
      "ĠFockers": 3423,
      "ĠFairlane": 3424,
      "ĠFaulkner": 3425,
      "ĠFlorida": 3426,
      "ĠForever": 3427,
      "ĠIdiots": 3428,
      "ĠIsham": 3429,
      "ĠIzzard": 3430,
      "ĠIdaho": 3431,
      "ĠIllusionist": 3432,
      "ĠTunstall": 3433,
      "ĠTrudeau": 3434,
      "ĠTownsend": 3435,
      "ĠTechnology": 3436,
      "ĠTomorrow": 3437,
      "ĠOrthodox": 3438,
      "ĠOrigins": 3439,
      "ĠOedekerk": 3440,
      "ĠGirl": 3441,
      "ĠGoldman": 3442,
      "ĠGibbons": 3443,
      "ĠGoetzman": 3444,
      "ĠGrenadines": 3445,
      "ĠGoldmine": 3446,
      "ĠYankee": 3447,
      "distribution": 3448,
      "ĠRevenge": 3449,
      "ĠReturns": 3450,
      "ĠJaneiro": 3451,
      "ĠJersey": 3452,
      "ĠNavarone": 3453,
      "ĠNuggets": 3454,
      "ĠNielsen": 3455,
      "ĠNykvist": 3456,
      "ĠNationals": 3457,
      "Roadrunner": 3458,
      "Algeria": 3459,
      "Algiers": 3460,
      "Allentown": 3461,
      "ĠEmmerich": 3462,
      "Chaplin": 3463,
      "Chicken": 3464,
      "Christopher": 3465,
      "Chungking": 3466,
      "Charlottesville": 3467,
      "Chrysalis": 3468,
      "Scottish": 3469,
      "ĠCollaboration": 3470,
      "Anupam": 3471,
      "Anjelica": 3472,
      "Intolerable": 3473,
      "Invictus": 3474,
      "Johannesburg": 3475,
      "Striptease": 3476,
      "Brigitte": 3477,
      "Jeffrey": 3478,
      "Regina": 3479,
      "Reggae": 3480,
      "ĠVocals": 3481,
      "Ġdesigner": 3482,
      "Ġdisease": 3483,
      "Ġdisciplines": 3484,
      "ĠMcFerrin": 3485,
      "ĠMcDormand": 3486,
      "Autoharp": 3487,
      "Lebanese": 3488,
      "Levitt": 3489,
      "Pacific": 3490,
      "ĠZemeckis": 3491,
      "ĠZombie": 3492,
      "Ġjazz": 3493,
      "Pietermaritz": 3494,
      "ĠChristmas": 3495,
      "ĠAnastasio": 3496,
      "Delaware": 3497,
      "Southern": 3498,
      "ĠUsual": 3499,
      "ĠCarmody": 3500,
      "Vietnamese": 3501,
      "disambiguation": 3502,
      "ĠSpartak": 3503,
      "ĠBurroughs": 3504,
      "ĠMansfield": 3505,
      "ĠWolfgang": 3506,
      "ĠDebussy": 3507,
      "Bertolt": 3508,
      "Cinematographer": 3509,
      "Environmentalist": 3510,
      "Epistemology": 3511,
      "Goldwyn": 3512,
      "Isabella": 3513,
      "Kazakhstan": 3514,
      "Montpellier": 3515,
      "Switzerland": 3516,
      "Serpico": 3517,
      "Timbaland": 3518,
      "organization": 3519,
      "ĠCorporation": 3520,
      "ĠRoddenberry": 3521,
      "ĠRossellini": 3522,
      "ĠBoondocks": 3523,
      "ĠPovenmire": 3524,
      "ĠProfessor": 3525,
      "ĠHammerstein": 3526,
      "ĠExpendables": 3527,
      "Absurdism": 3528,
      "Apocalypse": 3529,
      "Burgundy": 3530,
      "Bisexuality": 3531,
      "Courteney": 3532,
      "Croatia": 3533,
      "Celebrity": 3534,
      "Chattanooga": 3535,
      "Dystopia": 3536,
      "Everything": 3537,
      "Illustrator": 3538,
      "KwaZulu": 3539,
      "Nagasaki": 3540,
      "Portishead": 3541,
      "Parliamentary": 3542,
      "Progressive": 3543,
      "Poughkeepsie": 3544,
      "Thirteen": 3545,
      "Ukrainian": 3546,
      "ĠNeverEnding": 3547,
      "Pietermaritzburg": 3548
    },
    "merges": [
      [
        "Ġ",
        "a"
      ],
      [
        "Ġ",
        "t"
      ],
      [
        "e",
        "s"
      ],
      [
        "h",
        "e"
      ],
      [
        "Ġt",
        "he"
      ],
      [
        "o",
        "n"
      ],
      [
        "t",
        "i"
      ],
      [
        "e",
        "n"
      ],
      [
        "Ġa",
        "n"
      ],
      [
        "l",
        "e"
      ],
      [
        "r",
        "a"
      ],
      [
        "Ġ",
        "s"
      ],
      [
        "Ġ",
        "o"
      ],
      [
        "q",
        "u"
      ],
      [
        "ti",
        "on"
      ],
      [
        "r",
        "e"
      ],
      [
        "Ġ",
        "n"
      ],
      [
        "Ġo",
        "f"
      ],
      [
        "p",
        "h"
      ],
      [
        "g",
        "ra"
      ],
      [
        "gra",
        "ph"
      ],
      [
        "qu",
        "es"
      ],
      [
        "Ġ",
        "ques"
      ],
      [
        "Ġques",
        "tion"
      ],
      [
        "e",
        "r"
      ],
      [
        "Ġ",
        "f"
      ],
      [
        "o",
        "d"
      ],
      [
        "c",
        "on"
      ],
      [
        "i",
        "v"
      ],
      [
        "Ġ",
        "re"
      ],
      [
        "r",
        "s"
      ],
      [
        "Ġan",
        "d"
      ],
      [
        "Ġs",
        "e"
      ],
      [
        "od",
        "es"
      ],
      [
        "Ġn",
        "odes"
      ],
      [
        "iv",
        "en"
      ],
      [
        "Ġf",
        "i"
      ],
      [
        "i",
        "n"
      ],
      [
        "p",
        "le"
      ],
      [
        "p",
        "r"
      ],
      [
        "t",
        "e"
      ],
      [
        "en",
        "t"
      ],
      [
        "con",
        "d"
      ],
      [
        "Ġse",
        "cond"
      ],
      [
        "w",
        "er"
      ],
      [
        "Ġ",
        "k"
      ],
      [
        "rs",
        "t"
      ],
      [
        "pr",
        "es"
      ],
      [
        "G",
        "iven"
      ],
      [
        "s",
        "wer"
      ],
      [
        "Ġ",
        "graph"
      ],
      [
        "Ġa",
        "s"
      ],
      [
        "Ġan",
        "swer"
      ],
      [
        "Ġre",
        "pres"
      ],
      [
        "Ġfi",
        "rst"
      ],
      [
        "Ġrepres",
        "ent"
      ],
      [
        "Ġ",
        "p"
      ],
      [
        "s",
        "i"
      ],
      [
        "o",
        "r"
      ],
      [
        "c",
        "e"
      ],
      [
        "Ġ",
        "g"
      ],
      [
        "o",
        "m"
      ],
      [
        "a",
        "t"
      ],
      [
        "r",
        "i"
      ],
      [
        "g",
        "e"
      ],
      [
        "a",
        "s"
      ],
      [
        "m",
        "a"
      ],
      [
        "Ġ",
        "e"
      ],
      [
        "in",
        "g"
      ],
      [
        "c",
        "h"
      ],
      [
        "te",
        "d"
      ],
      [
        "en",
        "ce"
      ],
      [
        "Ġ",
        "con"
      ],
      [
        "t",
        "u"
      ],
      [
        "d",
        "er"
      ],
      [
        "i",
        "g"
      ],
      [
        "o",
        "s"
      ],
      [
        "s",
        "ti"
      ],
      [
        "as",
        "e"
      ],
      [
        "o",
        "w"
      ],
      [
        "Ġn",
        "e"
      ],
      [
        "sti",
        "tu"
      ],
      [
        "i",
        "m"
      ],
      [
        "e",
        "e"
      ],
      [
        "u",
        "b"
      ],
      [
        "t",
        "ra"
      ],
      [
        "Ġ",
        "w"
      ],
      [
        "ig",
        "h"
      ],
      [
        "o",
        "rs"
      ],
      [
        "h",
        "at"
      ],
      [
        "ee",
        "p"
      ],
      [
        "b",
        "le"
      ],
      [
        "en",
        "ti"
      ],
      [
        "he",
        "re"
      ],
      [
        "Ġe",
        "x"
      ],
      [
        "r",
        "der"
      ],
      [
        "Ġ",
        "enti"
      ],
      [
        "P",
        "le"
      ],
      [
        "b",
        "ors"
      ],
      [
        "c",
        "ted"
      ],
      [
        "d",
        "ge"
      ],
      [
        "n",
        "ow"
      ],
      [
        "r",
        "om"
      ],
      [
        "Ġ",
        ")"
      ],
      [
        "Ġ",
        "<"
      ],
      [
        "Ġ",
        "?"
      ],
      [
        "Ġt",
        "ri"
      ],
      [
        "Ġt",
        "hat"
      ],
      [
        "ti",
        "es"
      ],
      [
        "Ġan",
        "ch"
      ],
      [
        "le",
        "dge"
      ],
      [
        "Ġs",
        "im"
      ],
      [
        "Ġs",
        "ub"
      ],
      [
        "Ġo",
        "rder"
      ],
      [
        "qu",
        "ence"
      ],
      [
        "Ġf",
        "rom"
      ],
      [
        "Ġre",
        "ma"
      ],
      [
        "Ġse",
        "quence"
      ],
      [
        "in",
        "ing"
      ],
      [
        "Ġk",
        "eep"
      ],
      [
        "Ġk",
        "now"
      ],
      [
        "Ġp",
        "os"
      ],
      [
        "si",
        "ble"
      ],
      [
        "Ġg",
        "iven"
      ],
      [
        "Ġcon",
        "stitu"
      ],
      [
        "Ġne",
        "igh"
      ],
      [
        "tra",
        "cted"
      ],
      [
        "Ġw",
        "here"
      ],
      [
        "Ġex",
        "tracted"
      ],
      [
        "Ġenti",
        "ties"
      ],
      [
        "Ple",
        "ase"
      ],
      [
        "Ġtri",
        "ple"
      ],
      [
        "Ġanch",
        "or"
      ],
      [
        "Ġsim",
        "ple"
      ],
      [
        "Ġsub",
        "graph"
      ],
      [
        "Ġrema",
        "ining"
      ],
      [
        "Ġknow",
        "ledge"
      ],
      [
        "Ġpos",
        "sible"
      ],
      [
        "Ġconstitu",
        "te"
      ],
      [
        "Ġneigh",
        "bors"
      ],
      [
        "l",
        "m"
      ],
      [
        "Ġfi",
        "lm"
      ],
      [
        "a",
        "n"
      ],
      [
        "c",
        "a"
      ],
      [
        "e",
        "o"
      ],
      [
        "eo",
        "ple"
      ],
      [
        "Ġp",
        "eople"
      ],
      [
        "s",
        "on"
      ],
      [
        "Ġ",
        "l"
      ],
      [
        "er",
        "son"
      ],
      [
        "ca",
        "tion"
      ],
      [
        "l",
        "i"
      ],
      [
        "Ġp",
        "erson"
      ],
      [
        "s",
        "t"
      ],
      [
        "Ġ",
        "("
      ],
      [
        "o",
        "cation"
      ],
      [
        "t",
        "y"
      ],
      [
        "en",
        "re"
      ],
      [
        "Ġ",
        "m"
      ],
      [
        "Ġ",
        "pr"
      ],
      [
        "Ġ",
        "C"
      ],
      [
        "o",
        "f"
      ],
      [
        "o",
        "u"
      ],
      [
        "Ġ",
        "S"
      ],
      [
        "a",
        "r"
      ],
      [
        "u",
        "si"
      ],
      [
        "usi",
        "c"
      ],
      [
        "Ġl",
        "ocation"
      ],
      [
        "si",
        "on"
      ],
      [
        ")",
        ","
      ],
      [
        "n",
        "i"
      ],
      [
        "Ġg",
        "enre"
      ],
      [
        "Ġm",
        "usic"
      ],
      [
        "Ġ",
        "in"
      ],
      [
        "a",
        "m"
      ],
      [
        "i",
        "lm"
      ],
      [
        "t",
        "a"
      ],
      [
        "t",
        "h"
      ],
      [
        "l",
        "a"
      ],
      [
        "es",
        "sion"
      ],
      [
        "an",
        "g"
      ],
      [
        "Ġpr",
        "of"
      ],
      [
        "ou",
        "n"
      ],
      [
        "Ġprof",
        "ession"
      ],
      [
        "u",
        "a"
      ],
      [
        "f",
        "ilm"
      ],
      [
        "e",
        "d"
      ],
      [
        "i",
        "c"
      ],
      [
        "o",
        "l"
      ],
      [
        "ang",
        "ua"
      ],
      [
        "Ġl",
        "angua"
      ],
      [
        "e",
        "l"
      ],
      [
        "Ġ",
        "c"
      ],
      [
        "a",
        "l"
      ],
      [
        "a",
        "li"
      ],
      [
        "r",
        "y"
      ],
      [
        "r",
        "ti"
      ],
      [
        "b",
        "y"
      ],
      [
        "i",
        "l"
      ],
      [
        "Ġ",
        "R"
      ],
      [
        "rti",
        "st"
      ],
      [
        "Ġa",
        "rtist"
      ],
      [
        "u",
        "m"
      ],
      [
        "Ġlangua",
        "ge"
      ],
      [
        "U",
        "ni"
      ],
      [
        "i",
        "s"
      ],
      [
        "Ġ",
        "A"
      ],
      [
        "Uni",
        "ted"
      ],
      [
        "Ġ",
        "B"
      ],
      [
        "Ġ",
        "M"
      ],
      [
        "Ġ",
        "W"
      ],
      [
        "od",
        "u"
      ],
      [
        "i",
        "a"
      ],
      [
        "i",
        "t"
      ],
      [
        "l",
        "u"
      ],
      [
        "d",
        "u"
      ],
      [
        "oun",
        "t"
      ],
      [
        "Ġ",
        "K"
      ],
      [
        "in",
        "s"
      ],
      [
        "Ġpr",
        "odu"
      ],
      [
        "ĠS",
        "t"
      ],
      [
        "c",
        "om"
      ],
      [
        "f",
        "lu"
      ],
      [
        "Ġin",
        "flu"
      ],
      [
        "Ġinflu",
        "ence"
      ],
      [
        "T",
        "he"
      ],
      [
        "m",
        "p"
      ],
      [
        "t",
        "s"
      ],
      [
        "Ġ",
        "D"
      ],
      [
        "or",
        "d"
      ],
      [
        "b",
        "i"
      ],
      [
        "l",
        "y"
      ],
      [
        "t",
        "er"
      ],
      [
        "Ġc",
        "ount"
      ],
      [
        "Ġartist",
        "s"
      ],
      [
        "at",
        "es"
      ],
      [
        "n",
        "g"
      ],
      [
        "Ġ",
        "P"
      ],
      [
        "Ġcon",
        "ta"
      ],
      [
        "la",
        "ce"
      ],
      [
        "du",
        "cation"
      ],
      [
        "Ġcount",
        "ry"
      ],
      [
        "Ġconta",
        "ins"
      ],
      [
        "c",
        "k"
      ],
      [
        "u",
        "s"
      ],
      [
        "Ġ",
        "L"
      ],
      [
        "Ġe",
        "ducation"
      ],
      [
        "d",
        "e"
      ],
      [
        "Ġ",
        "H"
      ],
      [
        "r",
        "o"
      ],
      [
        "r",
        "um"
      ],
      [
        "an",
        "d"
      ],
      [
        "ĠSt",
        "ates"
      ],
      [
        "c",
        "ord"
      ],
      [
        "p",
        "or"
      ],
      [
        "iv",
        "er"
      ],
      [
        "a",
        "tion"
      ],
      [
        "i",
        "ty"
      ],
      [
        "Ġs",
        "por"
      ],
      [
        "ma",
        "n"
      ],
      [
        "st",
        "rum"
      ],
      [
        "Ġin",
        "strum"
      ],
      [
        "Ġinstrum",
        "ent"
      ],
      [
        "l",
        "es"
      ],
      [
        "Ġp",
        "lace"
      ],
      [
        "mp",
        "ic"
      ],
      [
        "ly",
        "mpic"
      ],
      [
        "2",
        "0"
      ],
      [
        "N",
        "e"
      ],
      [
        "U",
        "n"
      ],
      [
        "c",
        "tion"
      ],
      [
        "g",
        "enre"
      ],
      [
        "Ġ",
        "F"
      ],
      [
        "Ġ",
        "I"
      ],
      [
        "Ġ",
        "T"
      ],
      [
        "Ġspor",
        "ts"
      ],
      [
        "h",
        "i"
      ],
      [
        "u",
        "r"
      ],
      [
        "v",
        "e"
      ],
      [
        "Ġ",
        "O"
      ],
      [
        "c",
        "t"
      ],
      [
        "m",
        "on"
      ],
      [
        "v",
        "i"
      ],
      [
        "Ġ",
        "G"
      ],
      [
        "Ġn",
        "ation"
      ],
      [
        "ali",
        "ty"
      ],
      [
        "Ġnation",
        "ality"
      ],
      [
        "1",
        "9"
      ],
      [
        "o",
        "p"
      ],
      [
        "Ġ",
        "Y"
      ],
      [
        "en",
        "der"
      ],
      [
        "si",
        "ty"
      ],
      [
        "Ġg",
        "ender"
      ],
      [
        "ed",
        "ia"
      ],
      [
        "iver",
        "sity"
      ],
      [
        "E",
        "ng"
      ],
      [
        "M",
        "a"
      ],
      [
        "d",
        "i"
      ],
      [
        "m",
        "er"
      ],
      [
        "es",
        "s"
      ],
      [
        "Ne",
        "w"
      ],
      [
        "a",
        "y"
      ],
      [
        "f",
        "li"
      ],
      [
        "i",
        "ch"
      ],
      [
        "r",
        "th"
      ],
      [
        "s",
        "h"
      ],
      [
        "t",
        "fli"
      ],
      [
        "u",
        "n"
      ],
      [
        "Ġ",
        "b"
      ],
      [
        "Ġt",
        "it"
      ],
      [
        "Ġne",
        "tfli"
      ],
      [
        "Ġm",
        "edia"
      ],
      [
        "com",
        "mon"
      ],
      [
        "Un",
        "iversity"
      ],
      [
        "Ġtit",
        "les"
      ],
      [
        "Ġnetfli",
        "x"
      ],
      [
        "l",
        "ocation"
      ],
      [
        "p",
        "an"
      ],
      [
        "oun",
        "ty"
      ],
      [
        "ct",
        "or"
      ],
      [
        "b",
        "el"
      ],
      [
        "e",
        "t"
      ],
      [
        "f",
        "or"
      ],
      [
        "i",
        "an"
      ],
      [
        "Ġo",
        "lympic"
      ],
      [
        "in",
        "stitu"
      ],
      [
        "or",
        "k"
      ],
      [
        "ar",
        "d"
      ],
      [
        "ĠR",
        "e"
      ],
      [
        "bi",
        "rth"
      ],
      [
        "Ġeducation",
        "al"
      ],
      [
        "ĠY",
        "ork"
      ],
      [
        "institu",
        "tion"
      ],
      [
        "a",
        "d"
      ],
      [
        "d",
        "om"
      ],
      [
        "i",
        "es"
      ],
      [
        "Ġ",
        "J"
      ],
      [
        "Ġ",
        "N"
      ],
      [
        "at",
        "h"
      ],
      [
        "ĠK",
        "ing"
      ],
      [
        "Ma",
        "le"
      ],
      [
        "R",
        "o"
      ],
      [
        "b",
        "er"
      ],
      [
        "e",
        "le"
      ],
      [
        "l",
        "in"
      ],
      [
        "n",
        "e"
      ],
      [
        "ra",
        "n"
      ],
      [
        "ce",
        "d"
      ],
      [
        "li",
        "sh"
      ],
      [
        "Eng",
        "lish"
      ],
      [
        "c",
        "er"
      ],
      [
        "u",
        "l"
      ],
      [
        "re",
        "d"
      ],
      [
        "ali",
        "st"
      ],
      [
        "vi",
        "sion"
      ],
      [
        "ĠKing",
        "dom"
      ],
      [
        "ele",
        "vision"
      ],
      [
        "A",
        "l"
      ],
      [
        "c",
        "ity"
      ],
      [
        "i",
        "r"
      ],
      [
        "o",
        "h"
      ],
      [
        "t",
        "on"
      ],
      [
        "v",
        "er"
      ],
      [
        "Ġ",
        "E"
      ],
      [
        "Ġ",
        "University"
      ],
      [
        "od",
        "e"
      ],
      [
        "Ġre",
        "cord"
      ],
      [
        "in",
        "e"
      ],
      [
        "om",
        "ed"
      ],
      [
        "Ġe",
        "th"
      ],
      [
        "ni",
        "city"
      ],
      [
        "la",
        "bel"
      ],
      [
        "Ġprodu",
        "ced"
      ],
      [
        "Ġinstrument",
        "alist"
      ],
      [
        "Ġeth",
        "nicity"
      ],
      [
        "Ġinstrumentalist",
        "s"
      ],
      [
        "l",
        "and"
      ],
      [
        "n",
        "ode"
      ],
      [
        "Ġ",
        "bi"
      ],
      [
        "Ġt",
        "v"
      ],
      [
        "ti",
        "ve"
      ],
      [
        "ri",
        "ter"
      ],
      [
        "ĠC",
        "ity"
      ],
      [
        "ĠC",
        "ounty"
      ],
      [
        "ni",
        "a"
      ],
      [
        "am",
        "es"
      ],
      [
        "ali",
        "for"
      ],
      [
        "Ġprodu",
        "ction"
      ],
      [
        "Ġprodu",
        "cer"
      ],
      [
        "com",
        "pan"
      ],
      [
        "Ġinfluence",
        "d"
      ],
      [
        "20",
        "0"
      ],
      [
        "Ġb",
        "ase"
      ],
      [
        "omed",
        "y"
      ],
      [
        "Ġbi",
        "b"
      ],
      [
        "alifor",
        "nia"
      ],
      [
        "compan",
        "ies"
      ],
      [
        "C",
        "h"
      ],
      [
        "a",
        "k"
      ],
      [
        "a",
        "p"
      ],
      [
        "i",
        "th"
      ],
      [
        "v",
        "an"
      ],
      [
        "Ġ",
        "ca"
      ],
      [
        "usic",
        "ian"
      ],
      [
        "ta",
        "te"
      ],
      [
        "il",
        "li"
      ],
      [
        "ĠD",
        "ay"
      ],
      [
        "ĠRe",
        "cord"
      ],
      [
        "F",
        "ilm"
      ],
      [
        "J",
        "a"
      ],
      [
        "S",
        "c"
      ],
      [
        "e",
        "at"
      ],
      [
        "g",
        "es"
      ],
      [
        "g",
        "er"
      ],
      [
        "t",
        "t"
      ],
      [
        "u",
        "red"
      ],
      [
        "Ġ",
        "de"
      ],
      [
        "Ġ",
        "ro"
      ],
      [
        "on",
        "e"
      ],
      [
        "re",
        "ctor"
      ],
      [
        "er",
        "man"
      ],
      [
        "Ġf",
        "eat"
      ],
      [
        "in",
        "is"
      ],
      [
        "ĠC",
        "ol"
      ],
      [
        "de",
        "ath"
      ],
      [
        "20",
        "1"
      ],
      [
        "di",
        "rector"
      ],
      [
        "location",
        "s"
      ],
      [
        "ber",
        "t"
      ],
      [
        "ĠRecord",
        "s"
      ],
      [
        "Ġro",
        "ck"
      ],
      [
        "Ġfeat",
        "ured"
      ],
      [
        "A",
        "n"
      ],
      [
        "G",
        "erman"
      ],
      [
        "I",
        "n"
      ],
      [
        "J",
        "oh"
      ],
      [
        "S",
        "t"
      ],
      [
        "a",
        "re"
      ],
      [
        "d",
        "m"
      ],
      [
        "g",
        "h"
      ],
      [
        "g",
        "ames"
      ],
      [
        "p",
        "e"
      ],
      [
        "s",
        "e"
      ],
      [
        "u",
        "p"
      ],
      [
        "w",
        "riter"
      ],
      [
        "Ġ",
        "director"
      ],
      [
        "he",
        "r"
      ],
      [
        "en",
        "n"
      ],
      [
        "le",
        "r"
      ],
      [
        "te",
        "am"
      ],
      [
        "or",
        "y"
      ],
      [
        "ĠC",
        "alifornia"
      ],
      [
        "ĠS",
        "um"
      ],
      [
        "al",
        "l"
      ],
      [
        "il",
        "l"
      ],
      [
        "lympic",
        "s"
      ],
      [
        "ĠO",
        "lympics"
      ],
      [
        "19",
        "9"
      ],
      [
        "ĠSum",
        "mer"
      ],
      [
        "B",
        "ri"
      ],
      [
        "C",
        "omedy"
      ],
      [
        "J",
        "e"
      ],
      [
        "R",
        "e"
      ],
      [
        "T",
        "elevision"
      ],
      [
        "i",
        "ca"
      ],
      [
        "m",
        "at"
      ],
      [
        "o",
        "x"
      ],
      [
        "v",
        "ent"
      ],
      [
        "Ġ",
        "V"
      ],
      [
        "Ġa",
        "dm"
      ],
      [
        "ra",
        "ma"
      ],
      [
        "tra",
        "tive"
      ],
      [
        "li",
        "on"
      ],
      [
        "am",
        "p"
      ],
      [
        "am",
        "s"
      ],
      [
        "ic",
        "an"
      ],
      [
        "Ġlangua",
        "ges"
      ],
      [
        "ĠA",
        "mer"
      ],
      [
        "Ġolympic",
        "s"
      ],
      [
        "tt",
        "en"
      ],
      [
        "inis",
        "trative"
      ],
      [
        "Joh",
        "n"
      ],
      [
        "Ġadm",
        "inistrative"
      ],
      [
        "'",
        "s"
      ],
      [
        "I",
        "ta"
      ],
      [
        "M",
        "y"
      ],
      [
        "M",
        "ich"
      ],
      [
        "R",
        "ich"
      ],
      [
        "S",
        "up"
      ],
      [
        "T",
        "h"
      ],
      [
        "a",
        "u"
      ],
      [
        "f",
        "f"
      ],
      [
        "o",
        "t"
      ],
      [
        "o",
        "ph"
      ],
      [
        "o",
        "gra"
      ],
      [
        "p",
        "i"
      ],
      [
        "p",
        "erson"
      ],
      [
        "r",
        "u"
      ],
      [
        "Ġ",
        "3"
      ],
      [
        "Ġ",
        "d"
      ],
      [
        "Ġ",
        "New"
      ],
      [
        "ti",
        "ng"
      ],
      [
        "le",
        "ge"
      ],
      [
        "re",
        "en"
      ],
      [
        "iv",
        "i"
      ],
      [
        "Ġfi",
        "ction"
      ],
      [
        "in",
        "ess"
      ],
      [
        "ri",
        "tten"
      ],
      [
        "tu",
        "r"
      ],
      [
        "Ġw",
        "ritten"
      ],
      [
        "ar",
        "y"
      ],
      [
        "ol",
        "ors"
      ],
      [
        "Ġc",
        "olors"
      ],
      [
        "ĠM",
        "c"
      ],
      [
        "mp",
        "us"
      ],
      [
        "us",
        "iness"
      ],
      [
        "ĠI",
        "I"
      ],
      [
        "hi",
        "te"
      ],
      [
        "ĠCol",
        "lege"
      ],
      [
        "201",
        "0"
      ],
      [
        "A",
        "u"
      ],
      [
        "A",
        "ctor"
      ],
      [
        "D",
        "on"
      ],
      [
        "D",
        "rama"
      ],
      [
        "F",
        "e"
      ],
      [
        "F",
        "ran"
      ],
      [
        "L",
        "e"
      ],
      [
        "P",
        "a"
      ],
      [
        "S",
        "h"
      ],
      [
        "S",
        "te"
      ],
      [
        "a",
        "b"
      ],
      [
        "a",
        "el"
      ],
      [
        "b",
        "ur"
      ],
      [
        "c",
        "i"
      ],
      [
        "c",
        "he"
      ],
      [
        "d",
        "ivi"
      ],
      [
        "g",
        "in"
      ],
      [
        "h",
        "u"
      ],
      [
        "k",
        "e"
      ],
      [
        "m",
        "y"
      ],
      [
        "m",
        "ent"
      ],
      [
        "m",
        "usician"
      ],
      [
        "o",
        "g"
      ],
      [
        "o",
        "ra"
      ],
      [
        "o",
        "is"
      ],
      [
        "r",
        "on"
      ],
      [
        "w",
        "ard"
      ],
      [
        "Ġ",
        "Z"
      ],
      [
        "Ġ",
        "j"
      ],
      [
        "Ġt",
        "elevision"
      ],
      [
        "es",
        "t"
      ],
      [
        "on",
        "d"
      ],
      [
        "in",
        "d"
      ],
      [
        "pr",
        "ogra"
      ],
      [
        "ce",
        "ase"
      ],
      [
        "ma",
        "le"
      ],
      [
        "ing",
        "er"
      ],
      [
        "ig",
        "n"
      ],
      [
        "im",
        "e"
      ],
      [
        "ca",
        "l"
      ],
      [
        "ĠC",
        "o"
      ],
      [
        "ĠS",
        "tate"
      ],
      [
        "ol",
        "d"
      ],
      [
        "al",
        "t"
      ],
      [
        "ĠA",
        "d"
      ],
      [
        "ĠA",
        "l"
      ],
      [
        "ĠP",
        "ic"
      ],
      [
        "hi",
        "re"
      ],
      [
        "Ġb",
        "usiness"
      ],
      [
        "et",
        "ro"
      ],
      [
        "Ro",
        "bert"
      ],
      [
        "Ġbib",
        "s"
      ],
      [
        "Ġbib",
        "lion"
      ],
      [
        "Ġde",
        "cease"
      ],
      [
        "ĠAmer",
        "ican"
      ],
      [
        "Mich",
        "ael"
      ],
      [
        "Rich",
        "ard"
      ],
      [
        "Sup",
        "er"
      ],
      [
        "Fe",
        "male"
      ],
      [
        "divi",
        "sion"
      ],
      [
        "progra",
        "m"
      ],
      [
        "Ġbiblion",
        "ess"
      ],
      [
        "Ġdecease",
        "d"
      ],
      [
        ".",
        ","
      ],
      [
        "B",
        "ill"
      ],
      [
        "C",
        "on"
      ],
      [
        "G",
        "ra"
      ],
      [
        "J",
        "u"
      ],
      [
        "M",
        "usician"
      ],
      [
        "P",
        "i"
      ],
      [
        "R",
        "om"
      ],
      [
        "S",
        "alt"
      ],
      [
        "W",
        "illi"
      ],
      [
        "a",
        "x"
      ],
      [
        "a",
        "te"
      ],
      [
        "a",
        "ch"
      ],
      [
        "b",
        "and"
      ],
      [
        "i",
        "st"
      ],
      [
        "j",
        "e"
      ],
      [
        "l",
        "d"
      ],
      [
        "l",
        "lin"
      ],
      [
        "o",
        "b"
      ],
      [
        "o",
        "od"
      ],
      [
        "o",
        "li"
      ],
      [
        "o",
        "ck"
      ],
      [
        "u",
        "t"
      ],
      [
        "u",
        "it"
      ],
      [
        "v",
        "el"
      ],
      [
        "Ġ",
        "ph"
      ],
      [
        "Ġ",
        "hu"
      ],
      [
        "es",
        "ign"
      ],
      [
        "en",
        "d"
      ],
      [
        "le",
        "vel"
      ],
      [
        "Ġs",
        "tate"
      ],
      [
        "re",
        "y"
      ],
      [
        "or",
        "ld"
      ],
      [
        "om",
        "as"
      ],
      [
        "ri",
        "es"
      ],
      [
        "as",
        "s"
      ],
      [
        "as",
        "y"
      ],
      [
        "ing",
        "s"
      ],
      [
        "an",
        "t"
      ],
      [
        "li",
        "an"
      ],
      [
        "ĠC",
        "h"
      ],
      [
        "ĠC",
        "l"
      ],
      [
        "ar",
        "k"
      ],
      [
        "ar",
        "ent"
      ],
      [
        "ol",
        "in"
      ],
      [
        "il",
        "os"
      ],
      [
        "is",
        "h"
      ],
      [
        "ĠA",
        "n"
      ],
      [
        "ĠT",
        "h"
      ],
      [
        "Eng",
        "land"
      ],
      [
        "for",
        "mat"
      ],
      [
        "Ro",
        "ck"
      ],
      [
        "Sc",
        "reen"
      ],
      [
        "Ita",
        "lian"
      ],
      [
        "Ġ3",
        "5"
      ],
      [
        "tur",
        "es"
      ],
      [
        "bur",
        "g"
      ],
      [
        "ĠPic",
        "tures"
      ],
      [
        "division",
        "s"
      ],
      [
        "Rom",
        "an"
      ],
      [
        "Willi",
        "am"
      ],
      [
        "llin",
        "ois"
      ],
      [
        "uit",
        "ar"
      ],
      [
        "Ġph",
        "ilos"
      ],
      [
        "Screen",
        "writer"
      ],
      [
        "A",
        "ction"
      ],
      [
        "B",
        "a"
      ],
      [
        "B",
        "ra"
      ],
      [
        "B",
        "ob"
      ],
      [
        "C",
        "an"
      ],
      [
        "D",
        "a"
      ],
      [
        "D",
        "e"
      ],
      [
        "F",
        "ant"
      ],
      [
        "K",
        "an"
      ],
      [
        "S",
        "ou"
      ],
      [
        "W",
        "hite"
      ],
      [
        "W",
        "orld"
      ],
      [
        "a",
        "g"
      ],
      [
        "a",
        "z"
      ],
      [
        "a",
        "in"
      ],
      [
        "b",
        "or"
      ],
      [
        "c",
        "ounty"
      ],
      [
        "c",
        "ting"
      ],
      [
        "d",
        "y"
      ],
      [
        "d",
        "esign"
      ],
      [
        "e",
        "y"
      ],
      [
        "e",
        "ar"
      ],
      [
        "g",
        "o"
      ],
      [
        "g",
        "writer"
      ],
      [
        "h",
        "am"
      ],
      [
        "i",
        "o"
      ],
      [
        "i",
        "on"
      ],
      [
        "l",
        "ig"
      ],
      [
        "m",
        "ith"
      ],
      [
        "n",
        "y"
      ],
      [
        "o",
        "ve"
      ],
      [
        "p",
        "lace"
      ],
      [
        "r",
        "d"
      ],
      [
        "s",
        "y"
      ],
      [
        "s",
        "ub"
      ],
      [
        "t",
        "o"
      ],
      [
        "t",
        "le"
      ],
      [
        "u",
        "e"
      ],
      [
        "u",
        "ry"
      ],
      [
        "v",
        "en"
      ],
      [
        "w",
        "s"
      ],
      [
        "y",
        "s"
      ],
      [
        "Ġ",
        "U"
      ],
      [
        "Ġ",
        "The"
      ],
      [
        "Ġ",
        "us"
      ],
      [
        "Ġa",
        "t"
      ],
      [
        "Ġa",
        "are"
      ],
      [
        "Ġa",
        "ward"
      ],
      [
        "on",
        "es"
      ],
      [
        "Ġs",
        "che"
      ],
      [
        "graph",
        "y"
      ],
      [
        "er",
        "s"
      ],
      [
        "er",
        "y"
      ],
      [
        "Ġf",
        "or"
      ],
      [
        "Ġre",
        "lig"
      ],
      [
        "or",
        "r"
      ],
      [
        "or",
        "man"
      ],
      [
        "ri",
        "a"
      ],
      [
        "ri",
        "s"
      ],
      [
        "ch",
        "o"
      ],
      [
        "ig",
        "an"
      ],
      [
        "ow",
        "a"
      ],
      [
        "ub",
        "li"
      ],
      [
        "igh",
        "t"
      ],
      [
        "hat",
        "t"
      ],
      [
        "an",
        "a"
      ],
      [
        "an",
        "c"
      ],
      [
        "an",
        "k"
      ],
      [
        "ca",
        "mpus"
      ],
      [
        "li",
        "p"
      ],
      [
        "st",
        "on"
      ],
      [
        "ĠC",
        "ar"
      ],
      [
        "ĠC",
        "ap"
      ],
      [
        "ou",
        "gh"
      ],
      [
        "ta",
        "l"
      ],
      [
        "la",
        "ck"
      ],
      [
        "el",
        "l"
      ],
      [
        "Ġc",
        "omedy"
      ],
      [
        "il",
        "le"
      ],
      [
        "um",
        "p"
      ],
      [
        "ĠW",
        "in"
      ],
      [
        "ĠD",
        "on"
      ],
      [
        "ter",
        "n"
      ],
      [
        "us",
        "e"
      ],
      [
        "ĠL",
        "e"
      ],
      [
        "ĠL",
        "ak"
      ],
      [
        "et",
        "t"
      ],
      [
        "ul",
        "t"
      ],
      [
        "ir",
        "gin"
      ],
      [
        "Ġca",
        "use"
      ],
      [
        "ĠDay",
        "s"
      ],
      [
        "St",
        "ar"
      ],
      [
        "are",
        "a"
      ],
      [
        "Th",
        "omas"
      ],
      [
        "Fran",
        "ce"
      ],
      [
        "Ġhu",
        "d"
      ],
      [
        "Fant",
        "asy"
      ],
      [
        "sub",
        "je"
      ],
      [
        "Ġus",
        "er"
      ],
      [
        "Ġaare",
        "as"
      ],
      [
        "Ġsche",
        "ma"
      ],
      [
        "Ġrelig",
        "ion"
      ],
      [
        "ubli",
        "c"
      ],
      [
        "ĠLak",
        "e"
      ],
      [
        "irgin",
        "ia"
      ],
      [
        "'",
        "t"
      ],
      [
        "0",
        "0"
      ],
      [
        "A",
        "d"
      ],
      [
        "A",
        "m"
      ],
      [
        "A",
        "s"
      ],
      [
        "B",
        "at"
      ],
      [
        "B",
        "lack"
      ],
      [
        "C",
        "om"
      ],
      [
        "C",
        "ar"
      ],
      [
        "C",
        "hi"
      ],
      [
        "C",
        "alifornia"
      ],
      [
        "D",
        "en"
      ],
      [
        "D",
        "an"
      ],
      [
        "D",
        "etro"
      ],
      [
        "G",
        "e"
      ],
      [
        "H",
        "orr"
      ],
      [
        "J",
        "os"
      ],
      [
        "L",
        "a"
      ],
      [
        "M",
        "an"
      ],
      [
        "M",
        "etro"
      ],
      [
        "N",
        "orman"
      ],
      [
        "O",
        "ran"
      ],
      [
        "P",
        "r"
      ],
      [
        "P",
        "at"
      ],
      [
        "R",
        "ay"
      ],
      [
        "S",
        "on"
      ],
      [
        "S",
        "pi"
      ],
      [
        "S",
        "inger"
      ],
      [
        "V",
        "i"
      ],
      [
        "V",
        "o"
      ],
      [
        "V",
        "al"
      ],
      [
        "W",
        "riter"
      ],
      [
        "a",
        "v"
      ],
      [
        "a",
        "le"
      ],
      [
        "a",
        "ra"
      ],
      [
        "a",
        "rs"
      ],
      [
        "b",
        "a"
      ],
      [
        "b",
        "b"
      ],
      [
        "b",
        "all"
      ],
      [
        "c",
        "an"
      ],
      [
        "d",
        "is"
      ],
      [
        "e",
        "k"
      ],
      [
        "e",
        "m"
      ],
      [
        "e",
        "ra"
      ],
      [
        "e",
        "ams"
      ],
      [
        "f",
        "a"
      ],
      [
        "f",
        "ul"
      ],
      [
        "g",
        "on"
      ],
      [
        "g",
        "ory"
      ],
      [
        "h",
        "o"
      ],
      [
        "h",
        "an"
      ],
      [
        "i",
        "e"
      ],
      [
        "i",
        "ce"
      ],
      [
        "i",
        "ence"
      ],
      [
        "i",
        "am"
      ],
      [
        "l",
        "van"
      ],
      [
        "l",
        "ler"
      ],
      [
        "m",
        "i"
      ],
      [
        "m",
        "ing"
      ],
      [
        "n",
        "es"
      ],
      [
        "n",
        "er"
      ],
      [
        "o",
        "c"
      ],
      [
        "o",
        "k"
      ],
      [
        "p",
        "os"
      ],
      [
        "p",
        "arent"
      ],
      [
        "p",
        "ublic"
      ],
      [
        "s",
        "as"
      ],
      [
        "s",
        "hire"
      ],
      [
        "t",
        "he"
      ],
      [
        "t",
        "ory"
      ],
      [
        "u",
        "g"
      ],
      [
        "z",
        "e"
      ],
      [
        "z",
        "z"
      ],
      [
        "Ġ",
        "&"
      ],
      [
        "Ġ",
        "Un"
      ],
      [
        "Ġa",
        "cting"
      ],
      [
        "Ġt",
        "ime"
      ],
      [
        "Ġt",
        "eams"
      ],
      [
        "ti",
        "c"
      ],
      [
        "ti",
        "n"
      ],
      [
        "le",
        "x"
      ],
      [
        "Ġs",
        "ax"
      ],
      [
        "Ġs",
        "cho"
      ],
      [
        "Ġs",
        "tory"
      ],
      [
        "er",
        "i"
      ],
      [
        "er",
        "re"
      ],
      [
        "er",
        "ou"
      ],
      [
        "er",
        "ies"
      ],
      [
        "pr",
        "odu"
      ],
      [
        "te",
        "gory"
      ],
      [
        "ent",
        "ury"
      ],
      [
        "or",
        "th"
      ],
      [
        "Ġg",
        "uitar"
      ],
      [
        "ri",
        "de"
      ],
      [
        "ri",
        "ller"
      ],
      [
        "as",
        "si"
      ],
      [
        "ma",
        "ri"
      ],
      [
        "ow",
        "n"
      ],
      [
        "Ġfilm",
        "s"
      ],
      [
        "son",
        "gwriter"
      ],
      [
        "st",
        "ry"
      ],
      [
        "st",
        "ery"
      ],
      [
        "ty",
        "pe"
      ],
      [
        "ĠC",
        "amp"
      ],
      [
        "ĠC",
        "entury"
      ],
      [
        "ou",
        "se"
      ],
      [
        "ĠS",
        "p"
      ],
      [
        "ĠS",
        "mith"
      ],
      [
        "ar",
        "t"
      ],
      [
        "Ġin",
        "du"
      ],
      [
        "am",
        "il"
      ],
      [
        "ta",
        "h"
      ],
      [
        "ta",
        "in"
      ],
      [
        "ic",
        "k"
      ],
      [
        "ol",
        "l"
      ],
      [
        "Ġc",
        "ine"
      ],
      [
        "ĠR",
        "o"
      ],
      [
        "ĠR",
        "iver"
      ],
      [
        "ĠA",
        "r"
      ],
      [
        "ĠA",
        "re"
      ],
      [
        "ĠB",
        "e"
      ],
      [
        "ĠB",
        "ig"
      ],
      [
        "ĠB",
        "ur"
      ],
      [
        "ĠM",
        "e"
      ],
      [
        "ĠM",
        "on"
      ],
      [
        "ĠM",
        "an"
      ],
      [
        "ĠM",
        "ich"
      ],
      [
        "ĠM",
        "ind"
      ],
      [
        "ĠW",
        "ol"
      ],
      [
        "ĠW",
        "il"
      ],
      [
        "ĠW",
        "illi"
      ],
      [
        "ĠK",
        "han"
      ],
      [
        "ĠD",
        "e"
      ],
      [
        "ĠP",
        "enn"
      ],
      [
        "ĠP",
        "ark"
      ],
      [
        "ĠL",
        "ee"
      ],
      [
        "ĠF",
        "ox"
      ],
      [
        "ĠI",
        "s"
      ],
      [
        "ĠI",
        "llinois"
      ],
      [
        "ĠT",
        "ime"
      ],
      [
        "ur",
        "es"
      ],
      [
        "vi",
        "d"
      ],
      [
        "ĠG",
        "ri"
      ],
      [
        "19",
        "7"
      ],
      [
        "19",
        "8"
      ],
      [
        "op",
        "er"
      ],
      [
        "op",
        "her"
      ],
      [
        "op",
        "era"
      ],
      [
        "di",
        "e"
      ],
      [
        "ess",
        "ee"
      ],
      [
        "un",
        "k"
      ],
      [
        "ĠJ",
        "oh"
      ],
      [
        "200",
        "4"
      ],
      [
        "200",
        "9"
      ],
      [
        "Ch",
        "ris"
      ],
      [
        "Ġca",
        "pi"
      ],
      [
        "Ġca",
        "mpus"
      ],
      [
        "Ja",
        "pan"
      ],
      [
        "Sc",
        "ience"
      ],
      [
        "German",
        "y"
      ],
      [
        "gh",
        "t"
      ],
      [
        "enn",
        "essee"
      ],
      [
        "199",
        "2"
      ],
      [
        "Bri",
        "an"
      ],
      [
        "Je",
        "an"
      ],
      [
        "Je",
        "ws"
      ],
      [
        "Re",
        "cord"
      ],
      [
        "vent",
        "ures"
      ],
      [
        "My",
        "stery"
      ],
      [
        "Th",
        "riller"
      ],
      [
        "oph",
        "y"
      ],
      [
        "oph",
        "one"
      ],
      [
        "ru",
        "e"
      ],
      [
        "ĠMc",
        "K"
      ],
      [
        "ĠII",
        "I"
      ],
      [
        "Pa",
        "ul"
      ],
      [
        "Sh",
        "ow"
      ],
      [
        "Ste",
        "ve"
      ],
      [
        "ci",
        "p"
      ],
      [
        "ĠZ",
        "one"
      ],
      [
        "Ġj",
        "ump"
      ],
      [
        "ĠAd",
        "ventures"
      ],
      [
        "ĠAl",
        "l"
      ],
      [
        "Gra",
        "m"
      ],
      [
        "Roman",
        "tic"
      ],
      [
        "Ġphilos",
        "ophy"
      ],
      [
        "Da",
        "vid"
      ],
      [
        "Kan",
        "sas"
      ],
      [
        "Sou",
        "th"
      ],
      [
        "sy",
        "lvan"
      ],
      [
        "hatt",
        "an"
      ],
      [
        "ĠWin",
        "ter"
      ],
      [
        "subje",
        "ct"
      ],
      [
        "Detro",
        "it"
      ],
      [
        "Horr",
        "or"
      ],
      [
        "Oran",
        "ge"
      ],
      [
        "Vo",
        "ice"
      ],
      [
        "iam",
        "ond"
      ],
      [
        "pos",
        "er"
      ],
      [
        "Ġsax",
        "ophone"
      ],
      [
        "Ġscho",
        "ol"
      ],
      [
        "Ġindu",
        "stry"
      ],
      [
        "ĠMich",
        "igan"
      ],
      [
        "ĠWilli",
        "ams"
      ],
      [
        "ĠPenn",
        "sylvan"
      ],
      [
        "opera",
        "tion"
      ],
      [
        "Ġcapi",
        "tal"
      ],
      [
        "Ġcampus",
        "es"
      ],
      [
        "Ġjump",
        "ing"
      ],
      [
        "ĠPennsylvan",
        "ia"
      ],
      [
        "5",
        "00"
      ],
      [
        "6",
        "3"
      ],
      [
        "A",
        "f"
      ],
      [
        "A",
        "r"
      ],
      [
        "A",
        "rth"
      ],
      [
        "B",
        "er"
      ],
      [
        "B",
        "ry"
      ],
      [
        "B",
        "ass"
      ],
      [
        "B",
        "io"
      ],
      [
        "C",
        "o"
      ],
      [
        "C",
        "ase"
      ],
      [
        "C",
        "ine"
      ],
      [
        "C",
        "ult"
      ],
      [
        "D",
        "u"
      ],
      [
        "D",
        "om"
      ],
      [
        "D",
        "rum"
      ],
      [
        "E",
        "M"
      ],
      [
        "E",
        "d"
      ],
      [
        "E",
        "n"
      ],
      [
        "E",
        "p"
      ],
      [
        "E",
        "u"
      ],
      [
        "E",
        "le"
      ],
      [
        "E",
        "ri"
      ],
      [
        "E",
        "ne"
      ],
      [
        "E",
        "van"
      ],
      [
        "F",
        "C"
      ],
      [
        "F",
        "er"
      ],
      [
        "F",
        "ox"
      ],
      [
        "G",
        "l"
      ],
      [
        "G",
        "r"
      ],
      [
        "G",
        "en"
      ],
      [
        "G",
        "ar"
      ],
      [
        "G",
        "et"
      ],
      [
        "G",
        "ill"
      ],
      [
        "G",
        "old"
      ],
      [
        "G",
        "uitar"
      ],
      [
        "H",
        "ar"
      ],
      [
        "H",
        "un"
      ],
      [
        "H",
        "amp"
      ],
      [
        "H",
        "ist"
      ],
      [
        "I",
        "s"
      ],
      [
        "I",
        "llinois"
      ],
      [
        "I",
        "owa"
      ],
      [
        "J",
        "o"
      ],
      [
        "J",
        "im"
      ],
      [
        "K",
        "az"
      ],
      [
        "L",
        "ou"
      ],
      [
        "L",
        "ind"
      ],
      [
        "M",
        "c"
      ],
      [
        "M",
        "i"
      ],
      [
        "M",
        "o"
      ],
      [
        "M",
        "on"
      ],
      [
        "M",
        "en"
      ],
      [
        "M",
        "in"
      ],
      [
        "M",
        "ar"
      ],
      [
        "M",
        "ark"
      ],
      [
        "O",
        "mari"
      ],
      [
        "P",
        "e"
      ],
      [
        "P",
        "ol"
      ],
      [
        "P",
        "hi"
      ],
      [
        "Q",
        "ue"
      ],
      [
        "R",
        "ed"
      ],
      [
        "S",
        "w"
      ],
      [
        "S",
        "er"
      ],
      [
        "S",
        "an"
      ],
      [
        "S",
        "il"
      ],
      [
        "S",
        "ur"
      ],
      [
        "S",
        "pan"
      ],
      [
        "S",
        "ride"
      ],
      [
        "T",
        "re"
      ],
      [
        "T",
        "im"
      ],
      [
        "T",
        "rey"
      ],
      [
        "V",
        "anc"
      ],
      [
        "V",
        "irginia"
      ],
      [
        "W",
        "as"
      ],
      [
        "W",
        "ood"
      ],
      [
        "Y",
        "ale"
      ],
      [
        "a",
        "e"
      ],
      [
        "a",
        "i"
      ],
      [
        "a",
        "j"
      ],
      [
        "a",
        "ir"
      ],
      [
        "a",
        "tive"
      ],
      [
        "a",
        "ting"
      ],
      [
        "b",
        "o"
      ],
      [
        "b",
        "an"
      ],
      [
        "b",
        "ora"
      ],
      [
        "c",
        "u"
      ],
      [
        "c",
        "ount"
      ],
      [
        "c",
        "ts"
      ],
      [
        "c",
        "ut"
      ],
      [
        "d",
        "a"
      ],
      [
        "d",
        "on"
      ],
      [
        "d",
        "ing"
      ],
      [
        "d",
        "ia"
      ],
      [
        "d",
        "ap"
      ],
      [
        "e",
        "p"
      ],
      [
        "e",
        "ph"
      ],
      [
        "e",
        "an"
      ],
      [
        "e",
        "th"
      ],
      [
        "e",
        "ck"
      ],
      [
        "e",
        "cu"
      ],
      [
        "f",
        "e"
      ],
      [
        "f",
        "ession"
      ],
      [
        "f",
        "ic"
      ],
      [
        "f",
        "ord"
      ],
      [
        "g",
        "g"
      ],
      [
        "h",
        "ing"
      ],
      [
        "h",
        "ab"
      ],
      [
        "i",
        "z"
      ],
      [
        "i",
        "el"
      ],
      [
        "i",
        "bb"
      ],
      [
        "i",
        "fe"
      ],
      [
        "k",
        "y"
      ],
      [
        "k",
        "in"
      ],
      [
        "k",
        "enn"
      ],
      [
        "l",
        "l"
      ],
      [
        "l",
        "o"
      ],
      [
        "l",
        "ight"
      ],
      [
        "l",
        "assi"
      ],
      [
        "m",
        "e"
      ],
      [
        "m",
        "st"
      ],
      [
        "n",
        "ter"
      ],
      [
        "n",
        "ment"
      ],
      [
        "o",
        "v"
      ],
      [
        "o",
        "or"
      ],
      [
        "o",
        "ta"
      ],
      [
        "o",
        "ts"
      ],
      [
        "o",
        "van"
      ],
      [
        "o",
        "ot"
      ],
      [
        "o",
        "graphy"
      ],
      [
        "p",
        "s"
      ],
      [
        "p",
        "se"
      ],
      [
        "p",
        "oli"
      ],
      [
        "r",
        "ess"
      ],
      [
        "r",
        "oll"
      ],
      [
        "s",
        "he"
      ],
      [
        "s",
        "inger"
      ],
      [
        "s",
        "burg"
      ],
      [
        "s",
        "oc"
      ],
      [
        "t",
        "es"
      ],
      [
        "t",
        "her"
      ],
      [
        "u",
        "c"
      ],
      [
        "u",
        "re"
      ],
      [
        "u",
        "an"
      ],
      [
        "u",
        "ni"
      ],
      [
        "u",
        "el"
      ],
      [
        "u",
        "rti"
      ],
      [
        "u",
        "ff"
      ],
      [
        "v",
        "in"
      ],
      [
        "v",
        "ille"
      ],
      [
        "w",
        "a"
      ],
      [
        "w",
        "ith"
      ],
      [
        "x",
        "ford"
      ],
      [
        "y",
        "k"
      ],
      [
        "y",
        "es"
      ],
      [
        "y",
        "ler"
      ],
      [
        "z",
        "er"
      ],
      [
        "z",
        "il"
      ],
      [
        "z",
        "ones"
      ],
      [
        "Ġ",
        "2"
      ],
      [
        "Ġ",
        "4"
      ],
      [
        "Ġ",
        "8"
      ],
      [
        "Ġ",
        "X"
      ],
      [
        "Ġ",
        "un"
      ],
      [
        "Ġ",
        "roll"
      ],
      [
        "Ġa",
        "lex"
      ],
      [
        "Ġt",
        "o"
      ],
      [
        "es",
        "e"
      ],
      [
        "es",
        "h"
      ],
      [
        "es",
        "ts"
      ],
      [
        "es",
        "ter"
      ],
      [
        "he",
        "l"
      ],
      [
        "on",
        "ger"
      ],
      [
        "ti",
        "sh"
      ],
      [
        "ti",
        "ful"
      ],
      [
        "ti",
        "cip"
      ],
      [
        "le",
        "y"
      ],
      [
        "re",
        "ek"
      ],
      [
        "re",
        "gon"
      ],
      [
        "Ġf",
        "oot"
      ],
      [
        "in",
        "n"
      ],
      [
        "in",
        "o"
      ],
      [
        "in",
        "es"
      ],
      [
        "in",
        "ley"
      ],
      [
        "te",
        "m"
      ],
      [
        "te",
        "mp"
      ],
      [
        "ent",
        "ary"
      ],
      [
        "Ġp",
        "ar"
      ],
      [
        "Ġp",
        "op"
      ],
      [
        "Ġp",
        "arent"
      ],
      [
        "Ġp",
        "eri"
      ],
      [
        "or",
        "g"
      ],
      [
        "or",
        "ge"
      ],
      [
        "or",
        "ica"
      ],
      [
        "om",
        "bi"
      ],
      [
        "at",
        "ar"
      ],
      [
        "ri",
        "g"
      ],
      [
        "ri",
        "st"
      ],
      [
        "ri",
        "can"
      ],
      [
        "ri",
        "ght"
      ],
      [
        "ge",
        "d"
      ],
      [
        "ge",
        "les"
      ],
      [
        "as",
        "hi"
      ],
      [
        "as",
        "hire"
      ],
      [
        "Ġe",
        "vent"
      ],
      [
        "ch",
        "light"
      ],
      [
        "tu",
        "re"
      ],
      [
        "tu",
        "red"
      ],
      [
        "os",
        "s"
      ],
      [
        "os",
        "ed"
      ],
      [
        "os",
        "by"
      ],
      [
        "os",
        "ter"
      ],
      [
        "sti",
        "c"
      ],
      [
        "sti",
        "n"
      ],
      [
        "igh",
        "ty"
      ],
      [
        "enti",
        "ne"
      ],
      [
        "Ġex",
        "ecu"
      ],
      [
        "an",
        "e"
      ],
      [
        "an",
        "ce"
      ],
      [
        "an",
        "der"
      ],
      [
        "an",
        "nes"
      ],
      [
        "ca",
        "go"
      ],
      [
        "ca",
        "tegory"
      ],
      [
        "li",
        "e"
      ],
      [
        "st",
        "ria"
      ],
      [
        "ty",
        "sburg"
      ],
      [
        "ĠC",
        "he"
      ],
      [
        "ĠC",
        "or"
      ],
      [
        "ĠC",
        "osby"
      ],
      [
        "ou",
        "ri"
      ],
      [
        "ou",
        "ge"
      ],
      [
        "ou",
        "ver"
      ],
      [
        "ĠS",
        "h"
      ],
      [
        "ĠS",
        "im"
      ],
      [
        "ĠS",
        "am"
      ],
      [
        "ĠS",
        "us"
      ],
      [
        "ĠS",
        "ear"
      ],
      [
        "ar",
        "on"
      ],
      [
        "Ġlocation",
        "s"
      ],
      [
        "ni",
        "e"
      ],
      [
        "Ġin",
        "ter"
      ],
      [
        "am",
        "e"
      ],
      [
        "la",
        "w"
      ],
      [
        "la",
        "ba"
      ],
      [
        "la",
        "hab"
      ],
      [
        "ang",
        "erou"
      ],
      [
        "oun",
        "d"
      ],
      [
        "oun",
        "g"
      ],
      [
        "ic",
        "ester"
      ],
      [
        "ol",
        "as"
      ],
      [
        "ol",
        "og"
      ],
      [
        "el",
        "son"
      ],
      [
        "il",
        "kenn"
      ],
      [
        "ĠR",
        "od"
      ],
      [
        "ĠR",
        "ab"
      ],
      [
        "ĠR",
        "aj"
      ],
      [
        "ĠR",
        "oss"
      ],
      [
        "ĠR",
        "ouge"
      ],
      [
        "is",
        "e"
      ],
      [
        "is",
        "m"
      ],
      [
        "is",
        "ne"
      ],
      [
        "ĠA",
        "ward"
      ],
      [
        "ĠA",
        "laba"
      ],
      [
        "ĠB",
        "o"
      ],
      [
        "ĠB",
        "ir"
      ],
      [
        "ĠB",
        "all"
      ],
      [
        "ĠB",
        "aron"
      ],
      [
        "ĠM",
        "ar"
      ],
      [
        "ĠM",
        "il"
      ],
      [
        "ĠW",
        "ar"
      ],
      [
        "ĠW",
        "al"
      ],
      [
        "ĠW",
        "hite"
      ],
      [
        "ĠW",
        "ars"
      ],
      [
        "ia",
        "tion"
      ],
      [
        "it",
        "tle"
      ],
      [
        "ount",
        "ry"
      ],
      [
        "ĠK",
        "ap"
      ],
      [
        "ĠSt",
        "re"
      ],
      [
        "ĠSt",
        "ory"
      ],
      [
        "ĠD",
        "iamond"
      ],
      [
        "ĠD",
        "angerou"
      ],
      [
        "Ġcount",
        "ries"
      ],
      [
        "ĠP",
        "a"
      ],
      [
        "ĠP",
        "o"
      ],
      [
        "ĠP",
        "r"
      ],
      [
        "us",
        "h"
      ],
      [
        "ĠL",
        "ove"
      ],
      [
        "ĠL",
        "onger"
      ],
      [
        "ĠH",
        "er"
      ],
      [
        "ĠH",
        "am"
      ],
      [
        "ĠH",
        "all"
      ],
      [
        "ĠH",
        "au"
      ],
      [
        "ro",
        "pe"
      ],
      [
        "ation",
        "al"
      ],
      [
        "Ġspor",
        "t"
      ],
      [
        "ĠF",
        "ri"
      ],
      [
        "ĠF",
        "oster"
      ],
      [
        "ĠI",
        "an"
      ],
      [
        "ĠI",
        "owa"
      ],
      [
        "ĠT",
        "ennessee"
      ],
      [
        "ĠT",
        "yler"
      ],
      [
        "ĠO",
        "l"
      ],
      [
        "ĠO",
        "xford"
      ],
      [
        "ct",
        "ron"
      ],
      [
        "vi",
        "e"
      ],
      [
        "ĠG",
        "u"
      ],
      [
        "ĠG",
        "ates"
      ],
      [
        "ĠG",
        "un"
      ],
      [
        "19",
        "2"
      ],
      [
        "19",
        "63"
      ],
      [
        "ĠY",
        "ou"
      ],
      [
        "ĠY",
        "oung"
      ],
      [
        "Ma",
        "ri"
      ],
      [
        "di",
        "ana"
      ],
      [
        "ay",
        "ne"
      ],
      [
        "ich",
        "olas"
      ],
      [
        "bel",
        "l"
      ],
      [
        "ĠRe",
        "public"
      ],
      [
        "ad",
        "a"
      ],
      [
        "dom",
        "ain"
      ],
      [
        "ĠJ",
        "r"
      ],
      [
        "ĠJ",
        "ones"
      ],
      [
        "ĠN",
        "orth"
      ],
      [
        "ĠN",
        "elson"
      ],
      [
        "ĠN",
        "icholas"
      ],
      [
        "Ro",
        "b"
      ],
      [
        "ber",
        "g"
      ],
      [
        "lin",
        "es"
      ],
      [
        "ul",
        "l"
      ],
      [
        "Al",
        "bert"
      ],
      [
        "Al",
        "tern"
      ],
      [
        "Al",
        "lahab"
      ],
      [
        "ver",
        "nment"
      ],
      [
        "ĠE",
        "p"
      ],
      [
        "ĠE",
        "x"
      ],
      [
        "ĠE",
        "nter"
      ],
      [
        "ĠE",
        "yes"
      ],
      [
        "land",
        "s"
      ],
      [
        "200",
        "6"
      ],
      [
        "ak",
        "a"
      ],
      [
        "ĠDay",
        "ton"
      ],
      [
        "Ja",
        "ck"
      ],
      [
        "Ja",
        "zz"
      ],
      [
        "Ġde",
        "fa"
      ],
      [
        "inis",
        "eries"
      ],
      [
        "201",
        "2"
      ],
      [
        "An",
        "n"
      ],
      [
        "An",
        "dy"
      ],
      [
        "In",
        "si"
      ],
      [
        "In",
        "dia"
      ],
      [
        "se",
        "x"
      ],
      [
        "199",
        "7"
      ],
      [
        "199",
        "9"
      ],
      [
        "mat",
        "ography"
      ],
      [
        "vent",
        "ure"
      ],
      [
        "ĠV",
        "irginia"
      ],
      [
        "ĠAmer",
        "ica"
      ],
      [
        "Ita",
        "ly"
      ],
      [
        "My",
        "stic"
      ],
      [
        "au",
        "tiful"
      ],
      [
        "Ġd",
        "rama"
      ],
      [
        "tur",
        "n"
      ],
      [
        "Au",
        "stria"
      ],
      [
        "Le",
        "icester"
      ],
      [
        "ora",
        "ry"
      ],
      [
        "ron",
        "g"
      ],
      [
        "ĠCo",
        "oper"
      ],
      [
        "Con",
        "fession"
      ],
      [
        "Ju",
        "lie"
      ],
      [
        "Pi",
        "erre"
      ],
      [
        "ach",
        "man"
      ],
      [
        "ĠCl",
        "osed"
      ],
      [
        "olin",
        "a"
      ],
      [
        "ĠAn",
        "geles"
      ],
      [
        "Ġphilos",
        "opher"
      ],
      [
        "Bra",
        "zil"
      ],
      [
        "Bob",
        "by"
      ],
      [
        "Can",
        "ada"
      ],
      [
        "De",
        "an"
      ],
      [
        "go",
        "vernment"
      ],
      [
        "ny",
        "rd"
      ],
      [
        "ĠU",
        "tah"
      ],
      [
        "Ġfor",
        "m"
      ],
      [
        "anc",
        "ashire"
      ],
      [
        "ĠCar",
        "olina"
      ],
      [
        "ĠCap",
        "tured"
      ],
      [
        "ĠDon",
        "ovan"
      ],
      [
        "Ad",
        "venture"
      ],
      [
        "As",
        "soc"
      ],
      [
        "Com",
        "poser"
      ],
      [
        "Chi",
        "cago"
      ],
      [
        "Den",
        "ver"
      ],
      [
        "Jos",
        "eph"
      ],
      [
        "Man",
        "hattan"
      ],
      [
        "Metro",
        "poli"
      ],
      [
        "Val",
        "entine"
      ],
      [
        "ming",
        "ham"
      ],
      [
        "ĠUn",
        "cut"
      ],
      [
        "produ",
        "ced"
      ],
      [
        "ĠCamp",
        "bell"
      ],
      [
        "amil",
        "y"
      ],
      [
        "tain",
        "ment"
      ],
      [
        "Ġcine",
        "matography"
      ],
      [
        "ĠAr",
        "bor"
      ],
      [
        "ĠBe",
        "autiful"
      ],
      [
        "ĠBig",
        "ger"
      ],
      [
        "ĠWil",
        "son"
      ],
      [
        "ĠGri",
        "ff"
      ],
      [
        "Gram",
        "my"
      ],
      [
        "Arth",
        "ur"
      ],
      [
        "Bry",
        "an"
      ],
      [
        "Bio",
        "graphy"
      ],
      [
        "EM",
        "I"
      ],
      [
        "Ed",
        "die"
      ],
      [
        "Eu",
        "rope"
      ],
      [
        "Ele",
        "ctron"
      ],
      [
        "Ene",
        "my"
      ],
      [
        "Get",
        "tysburg"
      ],
      [
        "Hun",
        "ter"
      ],
      [
        "Hamp",
        "shire"
      ],
      [
        "Hist",
        "orica"
      ],
      [
        "Jo",
        "an"
      ],
      [
        "Mc",
        "Gill"
      ],
      [
        "Mo",
        "by"
      ],
      [
        "Omari",
        "on"
      ],
      [
        "Phi",
        "lip"
      ],
      [
        "Que",
        "en"
      ],
      [
        "Sil",
        "ver"
      ],
      [
        "Span",
        "ish"
      ],
      [
        "Sride",
        "vi"
      ],
      [
        "Vanc",
        "ouver"
      ],
      [
        "Was",
        "hing"
      ],
      [
        "count",
        "ries"
      ],
      [
        "ibb",
        "on"
      ],
      [
        "lassi",
        "cal"
      ],
      [
        "mst",
        "rong"
      ],
      [
        "urti",
        "s"
      ],
      [
        "Ġun",
        "iversity"
      ],
      [
        "Ġalex",
        "ander"
      ],
      [
        "ticip",
        "ating"
      ],
      [
        "Ġfoot",
        "ball"
      ],
      [
        "temp",
        "orary"
      ],
      [
        "Ġpar",
        "ticipating"
      ],
      [
        "Ġperi",
        "od"
      ],
      [
        "Ġexecu",
        "tive"
      ],
      [
        "ĠSear",
        "chlight"
      ],
      [
        "Ġinter",
        "ests"
      ],
      [
        "olog",
        "y"
      ],
      [
        "ilkenn",
        "y"
      ],
      [
        "ĠAlaba",
        "ma"
      ],
      [
        "ĠBir",
        "mingham"
      ],
      [
        "ĠKap",
        "oor"
      ],
      [
        "ĠDangerou",
        "s"
      ],
      [
        "Altern",
        "ative"
      ],
      [
        "Allahab",
        "ad"
      ],
      [
        "ĠEnter",
        "tainment"
      ],
      [
        "Ġdefa",
        "ult"
      ],
      [
        "Confession",
        "s"
      ],
      [
        "Assoc",
        "iation"
      ],
      [
        "Metropoli",
        "s"
      ],
      [
        "Electron",
        "ica"
      ],
      [
        "Historica",
        "l"
      ],
      [
        "Washing",
        "ton"
      ],
      [
        "0",
        "4"
      ],
      [
        "1",
        "0"
      ],
      [
        "3",
        "0"
      ],
      [
        "3",
        "9"
      ],
      [
        "A",
        "B"
      ],
      [
        "A",
        "S"
      ],
      [
        "A",
        "b"
      ],
      [
        "A",
        "p"
      ],
      [
        "A",
        "v"
      ],
      [
        "A",
        "ub"
      ],
      [
        "A",
        "li"
      ],
      [
        "A",
        "ni"
      ],
      [
        "A",
        "am"
      ],
      [
        "A",
        "th"
      ],
      [
        "A",
        "la"
      ],
      [
        "A",
        "rtist"
      ],
      [
        "A",
        "ly"
      ],
      [
        "A",
        "ng"
      ],
      [
        "A",
        "mer"
      ],
      [
        "A",
        "ir"
      ],
      [
        "A",
        "van"
      ],
      [
        "A",
        "isne"
      ],
      [
        "B",
        "T"
      ],
      [
        "B",
        "e"
      ],
      [
        "B",
        "i"
      ],
      [
        "B",
        "u"
      ],
      [
        "B",
        "en"
      ],
      [
        "B",
        "le"
      ],
      [
        "B",
        "re"
      ],
      [
        "B",
        "ub"
      ],
      [
        "B",
        "ar"
      ],
      [
        "B",
        "il"
      ],
      [
        "B",
        "ur"
      ],
      [
        "B",
        "un"
      ],
      [
        "B",
        "et"
      ],
      [
        "B",
        "ad"
      ],
      [
        "B",
        "ran"
      ],
      [
        "B",
        "illi"
      ],
      [
        "B",
        "ox"
      ],
      [
        "B",
        "usiness"
      ],
      [
        "B",
        "ois"
      ],
      [
        "B",
        "ish"
      ],
      [
        "B",
        "assi"
      ],
      [
        "B",
        "ise"
      ],
      [
        "C",
        "A"
      ],
      [
        "C",
        "y"
      ],
      [
        "C",
        "he"
      ],
      [
        "C",
        "le"
      ],
      [
        "C",
        "re"
      ],
      [
        "C",
        "in"
      ],
      [
        "C",
        "ent"
      ],
      [
        "C",
        "or"
      ],
      [
        "C",
        "ri"
      ],
      [
        "C",
        "ow"
      ],
      [
        "C",
        "li"
      ],
      [
        "C",
        "ou"
      ],
      [
        "C",
        "la"
      ],
      [
        "C",
        "ed"
      ],
      [
        "C",
        "ry"
      ],
      [
        "C",
        "ro"
      ],
      [
        "C",
        "ity"
      ],
      [
        "C",
        "ay"
      ],
      [
        "C",
        "ounty"
      ],
      [
        "C",
        "ath"
      ],
      [
        "C",
        "ele"
      ],
      [
        "C",
        "omed"
      ],
      [
        "C",
        "olin"
      ],
      [
        "C",
        "ze"
      ],
      [
        "C",
        "hattan"
      ],
      [
        "C",
        "ountry"
      ],
      [
        "C",
        "lassical"
      ],
      [
        "C",
        "urtis"
      ],
      [
        "D",
        "t"
      ],
      [
        "D",
        "y"
      ],
      [
        "D",
        "ra"
      ],
      [
        "D",
        "er"
      ],
      [
        "D",
        "od"
      ],
      [
        "D",
        "iv"
      ],
      [
        "D",
        "or"
      ],
      [
        "D",
        "ou"
      ],
      [
        "D",
        "el"
      ],
      [
        "D",
        "um"
      ],
      [
        "D",
        "un"
      ],
      [
        "D",
        "ian"
      ],
      [
        "D",
        "ad"
      ],
      [
        "D",
        "ys"
      ],
      [
        "D",
        "orman"
      ],
      [
        "D",
        "oc"
      ],
      [
        "D",
        "ick"
      ],
      [
        "D",
        "iamond"
      ],
      [
        "D",
        "ashi"
      ],
      [
        "E",
        "l"
      ],
      [
        "E",
        "as"
      ],
      [
        "E",
        "li"
      ],
      [
        "E",
        "ar"
      ],
      [
        "E",
        "th"
      ],
      [
        "E",
        "ver"
      ],
      [
        "E",
        "asy"
      ],
      [
        "E",
        "ny"
      ],
      [
        "E",
        "Dt"
      ],
      [
        "F",
        "i"
      ],
      [
        "F",
        "le"
      ],
      [
        "F",
        "or"
      ],
      [
        "F",
        "red"
      ],
      [
        "F",
        "ish"
      ],
      [
        "F",
        "unk"
      ],
      [
        "F",
        "air"
      ],
      [
        "F",
        "amily"
      ],
      [
        "G",
        "re"
      ],
      [
        "G",
        "al"
      ],
      [
        "G",
        "and"
      ],
      [
        "G",
        "illi"
      ],
      [
        "G",
        "one"
      ],
      [
        "G",
        "reen"
      ],
      [
        "G",
        "ary"
      ],
      [
        "G",
        "ate"
      ],
      [
        "G",
        "inley"
      ],
      [
        "G",
        "BT"
      ],
      [
        "H",
        "e"
      ],
      [
        "H",
        "er"
      ],
      [
        "H",
        "in"
      ],
      [
        "H",
        "ow"
      ],
      [
        "H",
        "im"
      ],
      [
        "H",
        "ol"
      ],
      [
        "H",
        "il"
      ],
      [
        "H",
        "ard"
      ],
      [
        "H",
        "ear"
      ],
      [
        "H",
        "ouse"
      ],
      [
        "H",
        "amil"
      ],
      [
        "I",
        "l"
      ],
      [
        "I",
        "t"
      ],
      [
        "I",
        "ce"
      ],
      [
        "I",
        "ri"
      ],
      [
        "I",
        "th"
      ],
      [
        "I",
        "van"
      ],
      [
        "I",
        "AS"
      ],
      [
        "J",
        "i"
      ],
      [
        "J",
        "on"
      ],
      [
        "J",
        "am"
      ],
      [
        "J",
        "ames"
      ],
      [
        "J",
        "orge"
      ],
      [
        "K",
        "T"
      ],
      [
        "K",
        "a"
      ],
      [
        "K",
        "y"
      ],
      [
        "K",
        "en"
      ],
      [
        "K",
        "ing"
      ],
      [
        "K",
        "un"
      ],
      [
        "K",
        "ath"
      ],
      [
        "K",
        "ir"
      ],
      [
        "K",
        "ings"
      ],
      [
        "K",
        "ey"
      ],
      [
        "K",
        "wa"
      ],
      [
        "K",
        "ilkenny"
      ],
      [
        "L",
        "o"
      ],
      [
        "L",
        "y"
      ],
      [
        "L",
        "es"
      ],
      [
        "L",
        "iv"
      ],
      [
        "L",
        "os"
      ],
      [
        "L",
        "il"
      ],
      [
        "L",
        "is"
      ],
      [
        "L",
        "and"
      ],
      [
        "L",
        "ith"
      ],
      [
        "L",
        "og"
      ],
      [
        "L",
        "ond"
      ],
      [
        "L",
        "ife"
      ],
      [
        "L",
        "uc"
      ],
      [
        "L",
        "inn"
      ],
      [
        "L",
        "ittle"
      ],
      [
        "L",
        "ancashire"
      ],
      [
        "L",
        "GBT"
      ],
      [
        "M",
        "er"
      ],
      [
        "M",
        "odes"
      ],
      [
        "M",
        "at"
      ],
      [
        "M",
        "ig"
      ],
      [
        "M",
        "ou"
      ],
      [
        "M",
        "usi"
      ],
      [
        "M",
        "oun"
      ],
      [
        "M",
        "and"
      ],
      [
        "M",
        "edia"
      ],
      [
        "M",
        "ath"
      ],
      [
        "M",
        "ary"
      ],
      [
        "M",
        "ery"
      ],
      [
        "M",
        "eth"
      ],
      [
        "M",
        "uni"
      ],
      [
        "M",
        "ighty"
      ],
      [
        "M",
        "ush"
      ],
      [
        "M",
        "CA"
      ],
      [
        "N",
        "at"
      ],
      [
        "N",
        "ot"
      ],
      [
        "N",
        "ora"
      ],
      [
        "N",
        "ut"
      ],
      [
        "N",
        "ag"
      ],
      [
        "O",
        "l"
      ],
      [
        "O",
        "n"
      ],
      [
        "O",
        "p"
      ],
      [
        "O",
        "r"
      ],
      [
        "O",
        "s"
      ],
      [
        "O",
        "ak"
      ],
      [
        "O",
        "pe"
      ],
      [
        "O",
        "regon"
      ],
      [
        "P",
        "h"
      ],
      [
        "P",
        "or"
      ],
      [
        "P",
        "ri"
      ],
      [
        "P",
        "os"
      ],
      [
        "P",
        "ar"
      ],
      [
        "P",
        "ed"
      ],
      [
        "P",
        "ro"
      ],
      [
        "P",
        "op"
      ],
      [
        "P",
        "ian"
      ],
      [
        "P",
        "oli"
      ],
      [
        "P",
        "ough"
      ],
      [
        "P",
        "ublic"
      ],
      [
        "P",
        "IAS"
      ],
      [
        "Q",
        "uan"
      ],
      [
        "R",
        "a"
      ],
      [
        "R",
        "u"
      ],
      [
        "R",
        "on"
      ],
      [
        "R",
        "ow"
      ],
      [
        "R",
        "ang"
      ],
      [
        "R",
        "ol"
      ],
      [
        "R",
        "ut"
      ],
      [
        "R",
        "io"
      ],
      [
        "R",
        "ush"
      ],
      [
        "S",
        "C"
      ],
      [
        "S",
        "e"
      ],
      [
        "S",
        "he"
      ],
      [
        "S",
        "le"
      ],
      [
        "S",
        "ub"
      ],
      [
        "S",
        "ca"
      ],
      [
        "S",
        "li"
      ],
      [
        "S",
        "am"
      ],
      [
        "S",
        "op"
      ],
      [
        "S",
        "un"
      ],
      [
        "S",
        "ton"
      ],
      [
        "S",
        "oph"
      ],
      [
        "S",
        "ting"
      ],
      [
        "S",
        "ain"
      ],
      [
        "S",
        "ven"
      ],
      [
        "S",
        "ara"
      ],
      [
        "S",
        "ick"
      ],
      [
        "T",
        "V"
      ],
      [
        "T",
        "u"
      ],
      [
        "T",
        "on"
      ],
      [
        "T",
        "en"
      ],
      [
        "T",
        "or"
      ],
      [
        "T",
        "om"
      ],
      [
        "T",
        "here"
      ],
      [
        "T",
        "al"
      ],
      [
        "T",
        "it"
      ],
      [
        "T",
        "hi"
      ],
      [
        "T",
        "op"
      ],
      [
        "T",
        "ran"
      ],
      [
        "T",
        "ru"
      ],
      [
        "T",
        "ate"
      ],
      [
        "T",
        "ough"
      ],
      [
        "T",
        "erre"
      ],
      [
        "T",
        "ennessee"
      ],
      [
        "T",
        "rue"
      ],
      [
        "T",
        "inn"
      ],
      [
        "U",
        "k"
      ],
      [
        "U",
        "r"
      ],
      [
        "U",
        "rs"
      ],
      [
        "U",
        "ria"
      ],
      [
        "U",
        "tah"
      ],
      [
        "V",
        "e"
      ],
      [
        "V",
        "an"
      ],
      [
        "V",
        "el"
      ],
      [
        "V",
        "il"
      ],
      [
        "W",
        "here"
      ],
      [
        "W",
        "ar"
      ],
      [
        "W",
        "al"
      ],
      [
        "W",
        "ill"
      ],
      [
        "W",
        "est"
      ],
      [
        "W",
        "alt"
      ],
      [
        "W",
        "ho"
      ],
      [
        "Y",
        "an"
      ],
      [
        "Z",
        "Z"
      ],
      [
        "Z",
        "a"
      ],
      [
        "Z",
        "o"
      ],
      [
        "Z",
        "u"
      ],
      [
        "Z",
        "ag"
      ],
      [
        "Z",
        "ombi"
      ],
      [
        "a",
        "c"
      ],
      [
        "a",
        "ti"
      ],
      [
        "a",
        "ri"
      ],
      [
        "a",
        "ge"
      ],
      [
        "a",
        "ca"
      ],
      [
        "a",
        "by"
      ],
      [
        "a",
        "ck"
      ],
      [
        "a",
        "us"
      ],
      [
        "a",
        "bel"
      ],
      [
        "a",
        "ul"
      ],
      [
        "a",
        "her"
      ],
      [
        "a",
        "ign"
      ],
      [
        "a",
        "ria"
      ],
      [
        "a",
        "wa"
      ],
      [
        "b",
        "e"
      ],
      [
        "b",
        "u"
      ],
      [
        "b",
        "ra"
      ],
      [
        "b",
        "ri"
      ],
      [
        "b",
        "ig"
      ],
      [
        "b",
        "ou"
      ],
      [
        "b",
        "al"
      ],
      [
        "b",
        "it"
      ],
      [
        "b",
        "us"
      ],
      [
        "b",
        "ath"
      ],
      [
        "b",
        "lin"
      ],
      [
        "b",
        "one"
      ],
      [
        "c",
        "es"
      ],
      [
        "c",
        "ques"
      ],
      [
        "c",
        "ent"
      ],
      [
        "c",
        "ow"
      ],
      [
        "c",
        "ol"
      ],
      [
        "c",
        "ock"
      ],
      [
        "c",
        "ism"
      ],
      [
        "d",
        "d"
      ],
      [
        "d",
        "s"
      ],
      [
        "d",
        "en"
      ],
      [
        "d",
        "an"
      ],
      [
        "d",
        "eo"
      ],
      [
        "d",
        "ams"
      ],
      [
        "d",
        "og"
      ],
      [
        "e",
        "ch"
      ],
      [
        "e",
        "ter"
      ],
      [
        "e",
        "ap"
      ],
      [
        "e",
        "ger"
      ],
      [
        "e",
        "tal"
      ],
      [
        "f",
        "g"
      ],
      [
        "f",
        "t"
      ],
      [
        "f",
        "ts"
      ],
      [
        "f",
        "ter"
      ],
      [
        "f",
        "red"
      ],
      [
        "f",
        "ton"
      ],
      [
        "f",
        "ax"
      ],
      [
        "f",
        "rey"
      ],
      [
        "f",
        "ries"
      ],
      [
        "f",
        "iel"
      ],
      [
        "g",
        "i"
      ],
      [
        "g",
        "ar"
      ],
      [
        "g",
        "um"
      ],
      [
        "g",
        "it"
      ],
      [
        "g",
        "un"
      ],
      [
        "g",
        "ard"
      ],
      [
        "g",
        "ine"
      ],
      [
        "g",
        "ate"
      ],
      [
        "g",
        "end"
      ],
      [
        "g",
        "ress"
      ],
      [
        "h",
        "l"
      ],
      [
        "h",
        "igh"
      ],
      [
        "h",
        "st"
      ],
      [
        "h",
        "ua"
      ],
      [
        "h",
        "illi"
      ],
      [
        "h",
        "all"
      ],
      [
        "h",
        "au"
      ],
      [
        "h",
        "ock"
      ],
      [
        "h",
        "ouse"
      ],
      [
        "h",
        "esh"
      ],
      [
        "h",
        "aka"
      ],
      [
        "i",
        "en"
      ],
      [
        "i",
        "tion"
      ],
      [
        "i",
        "rst"
      ],
      [
        "i",
        "si"
      ],
      [
        "i",
        "der"
      ],
      [
        "i",
        "sti"
      ],
      [
        "i",
        "ro"
      ],
      [
        "i",
        "eri"
      ],
      [
        "i",
        "da"
      ],
      [
        "i",
        "ds"
      ],
      [
        "k",
        "at"
      ],
      [
        "k",
        "ing"
      ],
      [
        "k",
        "eep"
      ],
      [
        "k",
        "ins"
      ],
      [
        "k",
        "lin"
      ],
      [
        "k",
        "ner"
      ],
      [
        "k",
        "ien"
      ],
      [
        "l",
        "s"
      ],
      [
        "l",
        "on"
      ],
      [
        "l",
        "le"
      ],
      [
        "l",
        "ent"
      ],
      [
        "l",
        "or"
      ],
      [
        "l",
        "ma"
      ],
      [
        "l",
        "am"
      ],
      [
        "l",
        "la"
      ],
      [
        "l",
        "angua"
      ],
      [
        "l",
        "ins"
      ],
      [
        "l",
        "ord"
      ],
      [
        "l",
        "ot"
      ],
      [
        "l",
        "ump"
      ],
      [
        "l",
        "ane"
      ],
      [
        "m",
        "od"
      ],
      [
        "m",
        "as"
      ],
      [
        "m",
        "ed"
      ],
      [
        "m",
        "el"
      ],
      [
        "m",
        "mer"
      ],
      [
        "m",
        "ies"
      ],
      [
        "m",
        "ett"
      ],
      [
        "m",
        "uni"
      ],
      [
        "m",
        "iniseries"
      ],
      [
        "n",
        "a"
      ],
      [
        "n",
        "t"
      ],
      [
        "n",
        "ames"
      ],
      [
        "n",
        "ell"
      ],
      [
        "n",
        "ett"
      ],
      [
        "n",
        "diana"
      ],
      [
        "n",
        "ology"
      ],
      [
        "o",
        "e"
      ],
      [
        "o",
        "z"
      ],
      [
        "o",
        "re"
      ],
      [
        "o",
        "te"
      ],
      [
        "o",
        "ca"
      ],
      [
        "o",
        "lace"
      ],
      [
        "o",
        "et"
      ],
      [
        "o",
        "og"
      ],
      [
        "o",
        "cal"
      ],
      [
        "o",
        "ey"
      ],
      [
        "o",
        "ok"
      ],
      [
        "o",
        "ged"
      ],
      [
        "o",
        "vie"
      ],
      [
        "p",
        "on"
      ],
      [
        "p",
        "en"
      ],
      [
        "p",
        "te"
      ],
      [
        "p",
        "eople"
      ],
      [
        "p",
        "son"
      ],
      [
        "p",
        "ic"
      ],
      [
        "p",
        "el"
      ],
      [
        "p",
        "op"
      ],
      [
        "p",
        "her"
      ],
      [
        "p",
        "ora"
      ],
      [
        "p",
        "end"
      ],
      [
        "p",
        "ok"
      ],
      [
        "p",
        "unk"
      ],
      [
        "p",
        "ines"
      ],
      [
        "r",
        "t"
      ],
      [
        "r",
        "en"
      ],
      [
        "r",
        "in"
      ],
      [
        "r",
        "te"
      ],
      [
        "r",
        "ence"
      ],
      [
        "r",
        "ow"
      ],
      [
        "r",
        "iver"
      ],
      [
        "r",
        "un"
      ],
      [
        "r",
        "ne"
      ],
      [
        "r",
        "ine"
      ],
      [
        "r",
        "ci"
      ],
      [
        "r",
        "ough"
      ],
      [
        "s",
        "a"
      ],
      [
        "s",
        "en"
      ],
      [
        "s",
        "te"
      ],
      [
        "s",
        "tra"
      ],
      [
        "s",
        "ua"
      ],
      [
        "s",
        "al"
      ],
      [
        "s",
        "ali"
      ],
      [
        "s",
        "por"
      ],
      [
        "s",
        "ur"
      ],
      [
        "s",
        "et"
      ],
      [
        "s",
        "end"
      ],
      [
        "s",
        "ky"
      ],
      [
        "s",
        "ouri"
      ],
      [
        "s",
        "ound"
      ],
      [
        "s",
        "fiel"
      ],
      [
        "s",
        "pok"
      ],
      [
        "s",
        "sa"
      ],
      [
        "t",
        "z"
      ],
      [
        "t",
        "or"
      ],
      [
        "t",
        "ol"
      ],
      [
        "t",
        "oh"
      ],
      [
        "t",
        "land"
      ],
      [
        "t",
        "rue"
      ],
      [
        "t",
        "pel"
      ],
      [
        "u",
        "es"
      ],
      [
        "u",
        "rs"
      ],
      [
        "u",
        "sti"
      ],
      [
        "u",
        "la"
      ],
      [
        "u",
        "is"
      ],
      [
        "u",
        "ng"
      ],
      [
        "u",
        "de"
      ],
      [
        "u",
        "ston"
      ],
      [
        "u",
        "ture"
      ],
      [
        "v",
        "or"
      ],
      [
        "v",
        "ed"
      ],
      [
        "v",
        "ic"
      ],
      [
        "v",
        "ol"
      ],
      [
        "v",
        "it"
      ],
      [
        "v",
        "ity"
      ],
      [
        "v",
        "lin"
      ],
      [
        "v",
        "aria"
      ],
      [
        "w",
        "y"
      ],
      [
        "w",
        "ing"
      ],
      [
        "w",
        "an"
      ],
      [
        "w",
        "el"
      ],
      [
        "w",
        "ins"
      ],
      [
        "w",
        "ay"
      ],
      [
        "w",
        "hite"
      ],
      [
        "w",
        "est"
      ],
      [
        "w",
        "ood"
      ],
      [
        "w",
        "orth"
      ],
      [
        "w",
        "right"
      ],
      [
        "w",
        "rence"
      ],
      [
        "x",
        "ua"
      ],
      [
        "x",
        "ed"
      ],
      [
        "y",
        "a"
      ],
      [
        "y",
        "d"
      ],
      [
        "y",
        "er"
      ],
      [
        "y",
        "th"
      ],
      [
        "y",
        "man"
      ],
      [
        "y",
        "Gram"
      ],
      [
        "y",
        "rne"
      ],
      [
        "z",
        "ation"
      ],
      [
        "z",
        "man"
      ],
      [
        "â",
        "Ģ"
      ],
      [
        "Ġ",
        "en"
      ],
      [
        "Ġ",
        "Uni"
      ],
      [
        "Ġ",
        "Ne"
      ],
      [
        "Ġ",
        "Eng"
      ],
      [
        "Ġ",
        "up"
      ],
      [
        "Ġ",
        "Queen"
      ],
      [
        "Ġ",
        "10"
      ],
      [
        "Ġ",
        "hock"
      ],
      [
        "Ġ",
        "âĢ"
      ],
      [
        "Ġa",
        "ctor"
      ],
      [
        "Ġa",
        "dap"
      ],
      [
        "es",
        "on"
      ],
      [
        "es",
        "ch"
      ],
      [
        "es",
        "is"
      ],
      [
        "es",
        "ton"
      ],
      [
        "es",
        "hire"
      ],
      [
        "es",
        "ham"
      ],
      [
        "es",
        "mith"
      ],
      [
        "es",
        "ville"
      ],
      [
        "he",
        "ville"
      ],
      [
        "on",
        "der"
      ],
      [
        "on",
        "st"
      ],
      [
        "on",
        "ist"
      ],
      [
        "on",
        "to"
      ],
      [
        "on",
        "ze"
      ],
      [
        "ti",
        "e"
      ],
      [
        "ti",
        "cal"
      ],
      [
        "ti",
        "she"
      ],
      [
        "ti",
        "vity"
      ],
      [
        "en",
        "ey"
      ],
      [
        "en",
        "atar"
      ],
      [
        "en",
        "hau"
      ],
      [
        "le",
        "m"
      ],
      [
        "le",
        "z"
      ],
      [
        "le",
        "ra"
      ],
      [
        "le",
        "in"
      ],
      [
        "le",
        "te"
      ],
      [
        "le",
        "man"
      ],
      [
        "le",
        "vent"
      ],
      [
        "ra",
        "h"
      ],
      [
        "ra",
        "l"
      ],
      [
        "ra",
        "y"
      ],
      [
        "ra",
        "in"
      ],
      [
        "ra",
        "rd"
      ],
      [
        "ra",
        "ll"
      ],
      [
        "ra",
        "tes"
      ],
      [
        "ra",
        "zer"
      ],
      [
        "ra",
        "med"
      ],
      [
        "ra",
        "levent"
      ],
      [
        "Ġs",
        "te"
      ],
      [
        "Ġs",
        "pe"
      ],
      [
        "Ġs",
        "ys"
      ],
      [
        "Ġs",
        "eries"
      ],
      [
        "Ġs",
        "wing"
      ],
      [
        "Ġo",
        "ri"
      ],
      [
        "qu",
        "in"
      ],
      [
        "qu",
        "el"
      ],
      [
        "re",
        "b"
      ],
      [
        "re",
        "ch"
      ],
      [
        "re",
        "lla"
      ],
      [
        "Ġn",
        "ota"
      ],
      [
        "ph",
        "ron"
      ],
      [
        "gra",
        "nt"
      ],
      [
        "graph",
        "ic"
      ],
      [
        "er",
        "k"
      ],
      [
        "er",
        "on"
      ],
      [
        "er",
        "ry"
      ],
      [
        "er",
        "van"
      ],
      [
        "er",
        "ger"
      ],
      [
        "er",
        "se"
      ],
      [
        "er",
        "rard"
      ],
      [
        "od",
        "ox"
      ],
      [
        "od",
        "ism"
      ],
      [
        "iv",
        "e"
      ],
      [
        "iv",
        "ia"
      ],
      [
        "iv",
        "ate"
      ],
      [
        "in",
        "ce"
      ],
      [
        "in",
        "os"
      ],
      [
        "in",
        "of"
      ],
      [
        "in",
        "ican"
      ],
      [
        "in",
        "og"
      ],
      [
        "in",
        "tin"
      ],
      [
        "in",
        "cent"
      ],
      [
        "in",
        "vol"
      ],
      [
        "ent",
        "s"
      ],
      [
        "ent",
        "z"
      ],
      [
        "cond",
        "ition"
      ],
      [
        "wer",
        "s"
      ],
      [
        "Ġk",
        "true"
      ],
      [
        "pres",
        "s"
      ],
      [
        "Ġp",
        "unk"
      ],
      [
        "si",
        "e"
      ],
      [
        "si",
        "l"
      ],
      [
        "si",
        "o"
      ],
      [
        "or",
        "m"
      ],
      [
        "or",
        "o"
      ],
      [
        "or",
        "ig"
      ],
      [
        "or",
        "os"
      ],
      [
        "or",
        "ia"
      ],
      [
        "or",
        "ng"
      ],
      [
        "or",
        "ges"
      ],
      [
        "ce",
        "an"
      ],
      [
        "Ġg",
        "eo"
      ],
      [
        "Ġg",
        "ame"
      ],
      [
        "om",
        "en"
      ],
      [
        "om",
        "pan"
      ],
      [
        "om",
        "ach"
      ],
      [
        "om",
        "orr"
      ],
      [
        "om",
        "eth"
      ],
      [
        "om",
        "pson"
      ],
      [
        "at",
        "t"
      ],
      [
        "at",
        "ra"
      ],
      [
        "at",
        "ri"
      ],
      [
        "at",
        "her"
      ],
      [
        "ri",
        "c"
      ],
      [
        "ri",
        "e"
      ],
      [
        "ri",
        "ted"
      ],
      [
        "ri",
        "ca"
      ],
      [
        "ri",
        "ze"
      ],
      [
        "ri",
        "bu"
      ],
      [
        "ri",
        "pte"
      ],
      [
        "ge",
        "i"
      ],
      [
        "ge",
        "ts"
      ],
      [
        "ge",
        "lion"
      ],
      [
        "ge",
        "ball"
      ],
      [
        "ge",
        "ls"
      ],
      [
        "as",
        "t"
      ],
      [
        "as",
        "ta"
      ],
      [
        "as",
        "ak"
      ],
      [
        "as",
        "olin"
      ],
      [
        "as",
        "tle"
      ],
      [
        "as",
        "dan"
      ],
      [
        "as",
        "kat"
      ],
      [
        "ma",
        "tion"
      ],
      [
        "ma",
        "ica"
      ],
      [
        "ma",
        "rine"
      ],
      [
        "Ġe",
        "di"
      ],
      [
        "ch",
        "op"
      ],
      [
        "ch",
        "aus"
      ],
      [
        "ch",
        "cock"
      ],
      [
        "Ġcon",
        "tin"
      ],
      [
        "Ġcon",
        "temporary"
      ],
      [
        "tu",
        "m"
      ],
      [
        "tu",
        "s"
      ],
      [
        "tu",
        "art"
      ],
      [
        "tu",
        "me"
      ],
      [
        "tu",
        "ralevent"
      ],
      [
        "der",
        "son"
      ],
      [
        "der",
        "dog"
      ],
      [
        "os",
        "cow"
      ],
      [
        "os",
        "tume"
      ],
      [
        "ow",
        "ell"
      ],
      [
        "ow",
        "lands"
      ],
      [
        "im",
        "son"
      ],
      [
        "ee",
        "ch"
      ],
      [
        "ub",
        "in"
      ],
      [
        "tra",
        "ne"
      ],
      [
        "Ġw",
        "ith"
      ],
      [
        "igh",
        "ieri"
      ],
      [
        "eep",
        "ers"
      ],
      [
        "ble",
        "gum"
      ],
      [
        "Ġenti",
        "ty"
      ],
      [
        "lm",
        "e"
      ],
      [
        "lm",
        "ighty"
      ],
      [
        "an",
        "o"
      ],
      [
        "an",
        "y"
      ],
      [
        "an",
        "ic"
      ],
      [
        "an",
        "el"
      ],
      [
        "an",
        "cer"
      ],
      [
        "an",
        "iz"
      ],
      [
        "ca",
        "r"
      ],
      [
        "ca",
        "rd"
      ],
      [
        "Ġl",
        "ife"
      ],
      [
        "li",
        "er"
      ],
      [
        "li",
        "ca"
      ],
      [
        "li",
        "ty"
      ],
      [
        "li",
        "am"
      ],
      [
        "li",
        "ot"
      ],
      [
        "st",
        "er"
      ],
      [
        "st",
        "al"
      ],
      [
        "st",
        "ates"
      ],
      [
        "st",
        "op"
      ],
      [
        "st",
        "all"
      ],
      [
        "st",
        "ribu"
      ],
      [
        "Ġm",
        "ed"
      ],
      [
        "Ġm",
        "em"
      ],
      [
        "Ġm",
        "iniseries"
      ],
      [
        "Ġm",
        "etal"
      ],
      [
        "ĠC",
        "an"
      ],
      [
        "ĠC",
        "am"
      ],
      [
        "ĠC",
        "un"
      ],
      [
        "ĠC",
        "ran"
      ],
      [
        "ĠC",
        "ox"
      ],
      [
        "ĠC",
        "ru"
      ],
      [
        "ĠC",
        "ana"
      ],
      [
        "ĠC",
        "reek"
      ],
      [
        "ĠC",
        "ountry"
      ],
      [
        "ĠC",
        "urtis"
      ],
      [
        "ĠC",
        "ari"
      ],
      [
        "ĠC",
        "urs"
      ],
      [
        "ĠC",
        "ervan"
      ],
      [
        "ĠC",
        "ompan"
      ],
      [
        "ĠC",
        "ather"
      ],
      [
        "ĠC",
        "astle"
      ],
      [
        "of",
        "ess"
      ],
      [
        "ou",
        "s"
      ],
      [
        "ou",
        "rs"
      ],
      [
        "ou",
        "cho"
      ],
      [
        "ou",
        "isi"
      ],
      [
        "ou",
        "lez"
      ],
      [
        "ĠS",
        "G"
      ],
      [
        "ĠS",
        "ol"
      ],
      [
        "ĠS",
        "al"
      ],
      [
        "ĠS",
        "hi"
      ],
      [
        "ĠS",
        "ay"
      ],
      [
        "ĠS",
        "ith"
      ],
      [
        "ĠS",
        "pe"
      ],
      [
        "ĠS",
        "pi"
      ],
      [
        "ĠS",
        "ab"
      ],
      [
        "ĠS",
        "inger"
      ],
      [
        "ĠS",
        "art"
      ],
      [
        "ĠS",
        "ky"
      ],
      [
        "ĠS",
        "eger"
      ],
      [
        "ĠS",
        "olace"
      ],
      [
        "ĠS",
        "ometh"
      ],
      [
        "ĠS",
        "askat"
      ],
      [
        "ĠS",
        "chop"
      ],
      [
        "ĠS",
        "tuart"
      ],
      [
        "ĠS",
        "card"
      ],
      [
        "ar",
        "p"
      ],
      [
        "ar",
        "re"
      ],
      [
        "ar",
        "ta"
      ],
      [
        "ar",
        "les"
      ],
      [
        "ar",
        "one"
      ],
      [
        "ar",
        "ke"
      ],
      [
        "ar",
        "lo"
      ],
      [
        "usi",
        "onist"
      ],
      [
        "ni",
        "i"
      ],
      [
        "ni",
        "ck"
      ],
      [
        "ni",
        "us"
      ],
      [
        "Ġin",
        "tern"
      ],
      [
        "am",
        "os"
      ],
      [
        "am",
        "bor"
      ],
      [
        "am",
        "mi"
      ],
      [
        "am",
        "big"
      ],
      [
        "ilm",
        "ed"
      ],
      [
        "ta",
        "tion"
      ],
      [
        "th",
        "or"
      ],
      [
        "th",
        "al"
      ],
      [
        "th",
        "is"
      ],
      [
        "la",
        "ke"
      ],
      [
        "la",
        "bora"
      ],
      [
        "la",
        "tivity"
      ],
      [
        "ua",
        "tion"
      ],
      [
        "ed",
        "i"
      ],
      [
        "ed",
        "ro"
      ],
      [
        "ed",
        "man"
      ],
      [
        "ed",
        "ian"
      ],
      [
        "ed",
        "ish"
      ],
      [
        "ed",
        "ek"
      ],
      [
        "ed",
        "ding"
      ],
      [
        "ed",
        "kin"
      ],
      [
        "ic",
        "ine"
      ],
      [
        "ic",
        "io"
      ],
      [
        "ic",
        "hel"
      ],
      [
        "ol",
        "o"
      ],
      [
        "ol",
        "la"
      ],
      [
        "ol",
        "ine"
      ],
      [
        "ol",
        "dm"
      ],
      [
        "ol",
        "kien"
      ],
      [
        "el",
        "ch"
      ],
      [
        "el",
        "ty"
      ],
      [
        "el",
        "us"
      ],
      [
        "el",
        "and"
      ],
      [
        "el",
        "lin"
      ],
      [
        "el",
        "berg"
      ],
      [
        "Ġc",
        "ounty"
      ],
      [
        "Ġc",
        "ul"
      ],
      [
        "Ġc",
        "lassical"
      ],
      [
        "Ġc",
        "ostume"
      ],
      [
        "Ġc",
        "ancer"
      ],
      [
        "al",
        "in"
      ],
      [
        "al",
        "ues"
      ],
      [
        "ali",
        "zation"
      ],
      [
        "ry",
        "sali"
      ],
      [
        "by",
        "shire"
      ],
      [
        "ĠR",
        "un"
      ],
      [
        "ĠR",
        "ath"
      ],
      [
        "ĠR",
        "ob"
      ],
      [
        "ĠR",
        "ock"
      ],
      [
        "ĠR",
        "ight"
      ],
      [
        "ĠR",
        "ank"
      ],
      [
        "ĠR",
        "oll"
      ],
      [
        "ĠR",
        "achman"
      ],
      [
        "ĠR",
        "ibbon"
      ],
      [
        "ĠR",
        "ider"
      ],
      [
        "ĠR",
        "esham"
      ],
      [
        "ĠR",
        "onst"
      ],
      [
        "ĠR",
        "ubin"
      ],
      [
        "ĠR",
        "edman"
      ],
      [
        "um",
        "e"
      ],
      [
        "um",
        "my"
      ],
      [
        "um",
        "entary"
      ],
      [
        "is",
        "and"
      ],
      [
        "is",
        "ode"
      ],
      [
        "is",
        "cip"
      ],
      [
        "is",
        "tem"
      ],
      [
        "is",
        "souri"
      ],
      [
        "ĠA",
        "ir"
      ],
      [
        "ĠA",
        "tten"
      ],
      [
        "ĠA",
        "ug"
      ],
      [
        "ĠA",
        "bou"
      ],
      [
        "ĠA",
        "fter"
      ],
      [
        "ĠA",
        "way"
      ],
      [
        "ĠA",
        "quin"
      ],
      [
        "ĠA",
        "lmighty"
      ],
      [
        "ĠB",
        "ro"
      ],
      [
        "ĠB",
        "ad"
      ],
      [
        "ĠB",
        "ak"
      ],
      [
        "ĠB",
        "ru"
      ],
      [
        "ĠB",
        "est"
      ],
      [
        "ĠB",
        "ass"
      ],
      [
        "ĠB",
        "hatt"
      ],
      [
        "ĠB",
        "ank"
      ],
      [
        "ĠB",
        "lack"
      ],
      [
        "ĠB",
        "ell"
      ],
      [
        "ĠB",
        "ie"
      ],
      [
        "ĠB",
        "ride"
      ],
      [
        "ĠB",
        "ae"
      ],
      [
        "ĠB",
        "uel"
      ],
      [
        "ĠB",
        "uff"
      ],
      [
        "ĠB",
        "achman"
      ],
      [
        "ĠB",
        "aby"
      ],
      [
        "ĠB",
        "yrne"
      ],
      [
        "ĠB",
        "enatar"
      ],
      [
        "ĠB",
        "rech"
      ],
      [
        "ĠB",
        "erger"
      ],
      [
        "ĠB",
        "orges"
      ],
      [
        "ĠB",
        "oulez"
      ],
      [
        "ĠB",
        "lake"
      ],
      [
        "ĠB",
        "elus"
      ],
      [
        "ĠM",
        "usic"
      ],
      [
        "ĠM",
        "ur"
      ],
      [
        "ĠM",
        "edia"
      ],
      [
        "ĠM",
        "un"
      ],
      [
        "ĠM",
        "ot"
      ],
      [
        "ĠM",
        "ary"
      ],
      [
        "ĠM",
        "ars"
      ],
      [
        "ĠM",
        "ai"
      ],
      [
        "ĠM",
        "ov"
      ],
      [
        "ĠM",
        "aher"
      ],
      [
        "ĠM",
        "ovie"
      ],
      [
        "ĠM",
        "inog"
      ],
      [
        "ĠM",
        "oscow"
      ],
      [
        "ĠM",
        "ichel"
      ],
      [
        "ĠM",
        "ummy"
      ],
      [
        "ĠM",
        "issouri"
      ],
      [
        "ĠW",
        "en"
      ],
      [
        "ĠW",
        "ord"
      ],
      [
        "ĠW",
        "est"
      ],
      [
        "ĠW",
        "ax"
      ],
      [
        "ĠW",
        "ood"
      ],
      [
        "ĠW",
        "orld"
      ],
      [
        "ĠW",
        "ings"
      ],
      [
        "ĠW",
        "ain"
      ],
      [
        "ĠW",
        "ho"
      ],
      [
        "ĠW",
        "iz"
      ],
      [
        "ĠW",
        "right"
      ],
      [
        "ĠW",
        "ayne"
      ],
      [
        "ĠW",
        "eap"
      ],
      [
        "ĠW",
        "onder"
      ],
      [
        "ĠW",
        "entz"
      ],
      [
        "ĠW",
        "omen"
      ],
      [
        "ĠW",
        "att"
      ],
      [
        "ĠW",
        "edding"
      ],
      [
        "ĠW",
        "elch"
      ],
      [
        "odu",
        "ction"
      ],
      [
        "it",
        "z"
      ],
      [
        "it",
        "ts"
      ],
      [
        "it",
        "man"
      ],
      [
        "it",
        "zer"
      ],
      [
        "it",
        "chcock"
      ],
      [
        "lu",
        "stra"
      ],
      [
        "lu",
        "tie"
      ],
      [
        "du",
        "n"
      ],
      [
        "du",
        "cting"
      ],
      [
        "ĠK",
        "her"
      ],
      [
        "ĠK",
        "ass"
      ],
      [
        "ĠK",
        "az"
      ],
      [
        "ĠK",
        "erou"
      ],
      [
        "ĠK",
        "ai"
      ],
      [
        "ĠK",
        "ilkenny"
      ],
      [
        "ĠK",
        "ids"
      ],
      [
        "ĠK",
        "lump"
      ],
      [
        "ĠK",
        "lein"
      ],
      [
        "ĠK",
        "rall"
      ],
      [
        "ĠK",
        "orng"
      ],
      [
        "ĠK",
        "asdan"
      ],
      [
        "ĠK",
        "eepers"
      ],
      [
        "ĠK",
        "nick"
      ],
      [
        "ĠSt",
        "ar"
      ],
      [
        "ĠSt",
        "op"
      ],
      [
        "ĠSt",
        "orm"
      ],
      [
        "ĠSt",
        "amos"
      ],
      [
        "com",
        "poser"
      ],
      [
        "com",
        "be"
      ],
      [
        "com",
        "muni"
      ],
      [
        "com",
        "edian"
      ],
      [
        "The",
        "lma"
      ],
      [
        "The",
        "atri"
      ],
      [
        "ĠD",
        "eep"
      ],
      [
        "ĠD",
        "un"
      ],
      [
        "ĠD",
        "ove"
      ],
      [
        "ĠD",
        "av"
      ],
      [
        "ĠD",
        "ress"
      ],
      [
        "ĠD",
        "uff"
      ],
      [
        "ĠD",
        "ance"
      ],
      [
        "ĠD",
        "ouri"
      ],
      [
        "ĠD",
        "isne"
      ],
      [
        "ĠD",
        "haka"
      ],
      [
        "ĠD",
        "river"
      ],
      [
        "ĠD",
        "esch"
      ],
      [
        "ord",
        "on"
      ],
      [
        "ord",
        "an"
      ],
      [
        "bi",
        "on"
      ],
      [
        "bi",
        "ent"
      ],
      [
        "bi",
        "an"
      ],
      [
        "ly",
        "n"
      ],
      [
        "ly",
        "pse"
      ],
      [
        "ly",
        "wood"
      ],
      [
        "ng",
        "du"
      ],
      [
        "ĠP",
        "ear"
      ],
      [
        "ĠP",
        "ara"
      ],
      [
        "ĠP",
        "art"
      ],
      [
        "ĠP",
        "hel"
      ],
      [
        "ĠP",
        "ayne"
      ],
      [
        "ĠP",
        "hilli"
      ],
      [
        "ĠP",
        "lot"
      ],
      [
        "ĠP",
        "erry"
      ],
      [
        "ĠP",
        "rize"
      ],
      [
        "ĠP",
        "asolin"
      ],
      [
        "ĠP",
        "owell"
      ],
      [
        "ĠP",
        "edro"
      ],
      [
        "ĠP",
        "alin"
      ],
      [
        "ĠP",
        "itts"
      ],
      [
        "us",
        "hu"
      ],
      [
        "ĠL",
        "a"
      ],
      [
        "ĠL",
        "ing"
      ],
      [
        "ĠL",
        "os"
      ],
      [
        "ĠL",
        "ess"
      ],
      [
        "ĠL",
        "ad"
      ],
      [
        "ĠL",
        "au"
      ],
      [
        "ĠL",
        "ant"
      ],
      [
        "ĠL",
        "lo"
      ],
      [
        "ĠL",
        "ov"
      ],
      [
        "ĠL",
        "uc"
      ],
      [
        "ĠL",
        "ittle"
      ],
      [
        "ĠL",
        "ancashire"
      ],
      [
        "ĠL",
        "uis"
      ],
      [
        "ĠL",
        "ast"
      ],
      [
        "ĠL",
        "ouisi"
      ],
      [
        "de",
        "y"
      ],
      [
        "de",
        "is"
      ],
      [
        "de",
        "au"
      ],
      [
        "de",
        "rella"
      ],
      [
        "ĠH",
        "eep"
      ],
      [
        "ĠH",
        "ur"
      ],
      [
        "ĠH",
        "op"
      ],
      [
        "ĠH",
        "ap"
      ],
      [
        "ĠH",
        "ill"
      ],
      [
        "ĠH",
        "amp"
      ],
      [
        "ĠH",
        "old"
      ],
      [
        "ĠH",
        "ate"
      ],
      [
        "ĠH",
        "ist"
      ],
      [
        "ĠH",
        "ood"
      ],
      [
        "ĠH",
        "ag"
      ],
      [
        "ĠH",
        "ove"
      ],
      [
        "ĠH",
        "em"
      ],
      [
        "ĠH",
        "ouse"
      ],
      [
        "ĠH",
        "eck"
      ],
      [
        "ĠH",
        "ull"
      ],
      [
        "ĠH",
        "SC"
      ],
      [
        "ĠH",
        "ook"
      ],
      [
        "ĠH",
        "uston"
      ],
      [
        "ĠH",
        "ours"
      ],
      [
        "ĠH",
        "ume"
      ],
      [
        "ĠH",
        "itchcock"
      ],
      [
        "ro",
        "ra"
      ],
      [
        "ro",
        "om"
      ],
      [
        "ro",
        "at"
      ],
      [
        "ro",
        "ke"
      ],
      [
        "ro",
        "hl"
      ],
      [
        "ro",
        "oged"
      ],
      [
        "and",
        "ler"
      ],
      [
        "iver",
        "sal"
      ],
      [
        "Ne",
        "il"
      ],
      [
        "Ne",
        "ve"
      ],
      [
        "Ne",
        "ther"
      ],
      [
        "Un",
        "fa"
      ],
      [
        "Un",
        "iversal"
      ],
      [
        "ĠF",
        "at"
      ],
      [
        "ĠF",
        "ord"
      ],
      [
        "ĠF",
        "ran"
      ],
      [
        "ĠF",
        "ond"
      ],
      [
        "ĠF",
        "ock"
      ],
      [
        "ĠF",
        "air"
      ],
      [
        "ĠF",
        "ull"
      ],
      [
        "ĠF",
        "amily"
      ],
      [
        "ĠF",
        "aul"
      ],
      [
        "ĠF",
        "irst"
      ],
      [
        "ĠF",
        "lor"
      ],
      [
        "ĠF",
        "ore"
      ],
      [
        "ĠF",
        "uture"
      ],
      [
        "ĠF",
        "ramed"
      ],
      [
        "ĠF",
        "ilmed"
      ],
      [
        "ĠF",
        "lutie"
      ],
      [
        "ĠI",
        "ce"
      ],
      [
        "ĠI",
        "di"
      ],
      [
        "ĠI",
        "sh"
      ],
      [
        "ĠI",
        "zz"
      ],
      [
        "ĠI",
        "da"
      ],
      [
        "ĠI",
        "ll"
      ],
      [
        "ĠI",
        "ndiana"
      ],
      [
        "ĠT",
        "op"
      ],
      [
        "ĠT",
        "un"
      ],
      [
        "ĠT",
        "ru"
      ],
      [
        "ĠT",
        "ank"
      ],
      [
        "ĠT",
        "own"
      ],
      [
        "ĠT",
        "rue"
      ],
      [
        "ĠT",
        "ech"
      ],
      [
        "ĠT",
        "wins"
      ],
      [
        "ĠT",
        "intin"
      ],
      [
        "ĠT",
        "oro"
      ],
      [
        "ĠT",
        "omorr"
      ],
      [
        "ĠT",
        "ambor"
      ],
      [
        "ĠT",
        "olkien"
      ],
      [
        "ur",
        "n"
      ],
      [
        "ur",
        "u"
      ],
      [
        "ur",
        "ch"
      ],
      [
        "ur",
        "ence"
      ],
      [
        "ve",
        "t"
      ],
      [
        "ĠO",
        "z"
      ],
      [
        "ĠO",
        "rder"
      ],
      [
        "ĠO",
        "rth"
      ],
      [
        "ĠO",
        "ne"
      ],
      [
        "ĠO",
        "ff"
      ],
      [
        "ĠO",
        "regon"
      ],
      [
        "ĠO",
        "rig"
      ],
      [
        "ĠO",
        "rci"
      ],
      [
        "ĠO",
        "cean"
      ],
      [
        "ĠO",
        "edek"
      ],
      [
        "mon",
        "a"
      ],
      [
        "mon",
        "d"
      ],
      [
        "mon",
        "s"
      ],
      [
        "vi",
        "st"
      ],
      [
        "vi",
        "ron"
      ],
      [
        "ĠG",
        "ir"
      ],
      [
        "ĠG",
        "one"
      ],
      [
        "ĠG",
        "reen"
      ],
      [
        "ĠG",
        "old"
      ],
      [
        "ĠG",
        "reek"
      ],
      [
        "ĠG",
        "ibbon"
      ],
      [
        "ĠG",
        "oet"
      ],
      [
        "ĠG",
        "ren"
      ],
      [
        "ĠG",
        "razer"
      ],
      [
        "ĠG",
        "errard"
      ],
      [
        "ĠG",
        "oldm"
      ],
      [
        "ĠG",
        "ordon"
      ],
      [
        "ĠG",
        "rohl"
      ],
      [
        "ĠG",
        "uru"
      ],
      [
        "19",
        "00"
      ],
      [
        "19",
        "04"
      ],
      [
        "19",
        "39"
      ],
      [
        "op",
        "atra"
      ],
      [
        "ĠY",
        "ank"
      ],
      [
        "Ma",
        "ury"
      ],
      [
        "Ma",
        "hesh"
      ],
      [
        "Ma",
        "yer"
      ],
      [
        "di",
        "an"
      ],
      [
        "di",
        "stribu"
      ],
      [
        "di",
        "ous"
      ],
      [
        "mer",
        "ste"
      ],
      [
        "ess",
        "a"
      ],
      [
        "ay",
        "kin"
      ],
      [
        "sh",
        "ine"
      ],
      [
        "Ġb",
        "and"
      ],
      [
        "Ġb",
        "ut"
      ],
      [
        "bel",
        "lion"
      ],
      [
        "et",
        "o"
      ],
      [
        "et",
        "names"
      ],
      [
        "ĠRe",
        "ven"
      ],
      [
        "ĠRe",
        "turn"
      ],
      [
        "ĠRe",
        "itman"
      ],
      [
        "ĠRe",
        "bellion"
      ],
      [
        "ad",
        "t"
      ],
      [
        "ad",
        "le"
      ],
      [
        "ad",
        "ines"
      ],
      [
        "ad",
        "run"
      ],
      [
        "ad",
        "owlands"
      ],
      [
        "ĠJ",
        "ane"
      ],
      [
        "ĠJ",
        "oe"
      ],
      [
        "ĠJ",
        "onze"
      ],
      [
        "ĠJ",
        "erse"
      ],
      [
        "ĠJ",
        "arre"
      ],
      [
        "ĠJ",
        "edi"
      ],
      [
        "ĠJ",
        "olla"
      ],
      [
        "ĠJ",
        "ordan"
      ],
      [
        "ĠN",
        "ow"
      ],
      [
        "ĠN",
        "ight"
      ],
      [
        "ĠN",
        "av"
      ],
      [
        "ĠN",
        "ug"
      ],
      [
        "ĠN",
        "iel"
      ],
      [
        "ĠN",
        "yk"
      ],
      [
        "ĠN",
        "ame"
      ],
      [
        "ĠN",
        "ational"
      ],
      [
        "ĠN",
        "yman"
      ],
      [
        "ĠN",
        "esmith"
      ],
      [
        "ath",
        "lon"
      ],
      [
        "Ro",
        "ots"
      ],
      [
        "Ro",
        "adrun"
      ],
      [
        "ber",
        "ry"
      ],
      [
        "lin",
        "e"
      ],
      [
        "ne",
        "y"
      ],
      [
        "ne",
        "mies"
      ],
      [
        "ran",
        "o"
      ],
      [
        "Al",
        "an"
      ],
      [
        "Al",
        "ger"
      ],
      [
        "Al",
        "to"
      ],
      [
        "Al",
        "fred"
      ],
      [
        "Al",
        "gi"
      ],
      [
        "Al",
        "lent"
      ],
      [
        "ver",
        "ly"
      ],
      [
        "ver",
        "ine"
      ],
      [
        "ver",
        "En"
      ],
      [
        "ĠE",
        "ducation"
      ],
      [
        "ĠE",
        "mmer"
      ],
      [
        "ĠE",
        "phron"
      ],
      [
        "ĠE",
        "liot"
      ],
      [
        "ĠE",
        "nemies"
      ],
      [
        "200",
        "1"
      ],
      [
        "200",
        "2"
      ],
      [
        "200",
        "5"
      ],
      [
        "200",
        "7"
      ],
      [
        "Ch",
        "ap"
      ],
      [
        "Ch",
        "ick"
      ],
      [
        "Ch",
        "rist"
      ],
      [
        "Ch",
        "aka"
      ],
      [
        "Ch",
        "ung"
      ],
      [
        "Ch",
        "eshire"
      ],
      [
        "Ch",
        "arlo"
      ],
      [
        "Ch",
        "rysali"
      ],
      [
        "ak",
        "ing"
      ],
      [
        "ak",
        "hst"
      ],
      [
        "ith",
        "s"
      ],
      [
        "ith",
        "ful"
      ],
      [
        "van",
        "ce"
      ],
      [
        "Ġca",
        "tegory"
      ],
      [
        "ĠRecord",
        "ings"
      ],
      [
        "Ja",
        "ws"
      ],
      [
        "Ja",
        "cques"
      ],
      [
        "Ja",
        "maica"
      ],
      [
        "Sc",
        "ot"
      ],
      [
        "Sc",
        "rooged"
      ],
      [
        "ger",
        "y"
      ],
      [
        "tt",
        "esville"
      ],
      [
        "tt",
        "any"
      ],
      [
        "ĠCol",
        "lins"
      ],
      [
        "ĠCol",
        "trane"
      ],
      [
        "ĠCol",
        "labora"
      ],
      [
        "201",
        "1"
      ],
      [
        "An",
        "ne"
      ],
      [
        "An",
        "up"
      ],
      [
        "An",
        "je"
      ],
      [
        "An",
        "nie"
      ],
      [
        "An",
        "gels"
      ],
      [
        "In",
        "to"
      ],
      [
        "In",
        "die"
      ],
      [
        "In",
        "diana"
      ],
      [
        "In",
        "vic"
      ],
      [
        "Joh",
        "annes"
      ],
      [
        "St",
        "omach"
      ],
      [
        "St",
        "ripte"
      ],
      [
        "St",
        "roke"
      ],
      [
        "gh",
        "ton"
      ],
      [
        "pe",
        "cts"
      ],
      [
        "se",
        "ts"
      ],
      [
        "enn",
        "a"
      ],
      [
        "199",
        "3"
      ],
      [
        "199",
        "8"
      ],
      [
        "Bri",
        "ght"
      ],
      [
        "Bri",
        "tish"
      ],
      [
        "Bri",
        "git"
      ],
      [
        "Bri",
        "ttany"
      ],
      [
        "Bri",
        "ghton"
      ],
      [
        "Je",
        "ff"
      ],
      [
        "Je",
        "wel"
      ],
      [
        "Re",
        "gin"
      ],
      [
        "Re",
        "public"
      ],
      [
        "Re",
        "gg"
      ],
      [
        "Re",
        "turn"
      ],
      [
        "Re",
        "lativity"
      ],
      [
        "mat",
        "ogra"
      ],
      [
        "ĠV",
        "ow"
      ],
      [
        "ĠV",
        "ance"
      ],
      [
        "ĠV",
        "ocal"
      ],
      [
        "ĠV",
        "incent"
      ],
      [
        "ĠV",
        "alues"
      ],
      [
        "amp",
        "ett"
      ],
      [
        "John",
        "s"
      ],
      [
        "Mich",
        "igan"
      ],
      [
        "Rich",
        "ie"
      ],
      [
        "Sup",
        "erman"
      ],
      [
        "ff",
        "en"
      ],
      [
        "Ġd",
        "el"
      ],
      [
        "Ġd",
        "esign"
      ],
      [
        "Ġd",
        "ise"
      ],
      [
        "Ġd",
        "iscip"
      ],
      [
        "ivi",
        "er"
      ],
      [
        "ĠMc",
        "Fer"
      ],
      [
        "ĠMc",
        "Queen"
      ],
      [
        "ĠMc",
        "Dorman"
      ],
      [
        "ĠMc",
        "Ginley"
      ],
      [
        "Au",
        "stin"
      ],
      [
        "Au",
        "toh"
      ],
      [
        "Au",
        "thor"
      ],
      [
        "Au",
        "rora"
      ],
      [
        "Don",
        "na"
      ],
      [
        "Fran",
        "k"
      ],
      [
        "Fran",
        "ces"
      ],
      [
        "Le",
        "ban"
      ],
      [
        "Le",
        "high"
      ],
      [
        "Le",
        "vit"
      ],
      [
        "Le",
        "thal"
      ],
      [
        "Pa",
        "ge"
      ],
      [
        "Pa",
        "ci"
      ],
      [
        "Pa",
        "lme"
      ],
      [
        "Sh",
        "ashi"
      ],
      [
        "Sh",
        "ammi"
      ],
      [
        "Sh",
        "adowlands"
      ],
      [
        "Ste",
        "p"
      ],
      [
        "Ste",
        "ven"
      ],
      [
        "Ste",
        "vie"
      ],
      [
        "ab",
        "les"
      ],
      [
        "bur",
        "gh"
      ],
      [
        "ci",
        "alization"
      ],
      [
        "che",
        "lle"
      ],
      [
        "che",
        "wan"
      ],
      [
        "ke",
        "es"
      ],
      [
        "ment",
        "alist"
      ],
      [
        "ĠZ",
        "em"
      ],
      [
        "ĠZ",
        "ombi"
      ],
      [
        "Ġj",
        "g"
      ],
      [
        "Ġj",
        "az"
      ],
      [
        "Ġj",
        "ack"
      ],
      [
        "ond",
        "ock"
      ],
      [
        "ind",
        "house"
      ],
      [
        "ĠCo",
        "en"
      ],
      [
        "ĠCo",
        "ates"
      ],
      [
        "ĠCo",
        "ok"
      ],
      [
        "ĠCo",
        "leman"
      ],
      [
        "ĠAd",
        "am"
      ],
      [
        "ĠAd",
        "ams"
      ],
      [
        "ĠAd",
        "vance"
      ],
      [
        "ĠAl",
        "bert"
      ],
      [
        "ĠAl",
        "ighieri"
      ],
      [
        "ĠAl",
        "bion"
      ],
      [
        "ĠPic",
        "ture"
      ],
      [
        "Robert",
        "o"
      ],
      [
        "Con",
        "cord"
      ],
      [
        "Con",
        "temporary"
      ],
      [
        "Con",
        "ducting"
      ],
      [
        "Gra",
        "ce"
      ],
      [
        "Gra",
        "ham"
      ],
      [
        "Ju",
        "les"
      ],
      [
        "Ju",
        "stin"
      ],
      [
        "Ju",
        "dd"
      ],
      [
        "Pi",
        "er"
      ],
      [
        "Pi",
        "eter"
      ],
      [
        "Pi",
        "rates"
      ],
      [
        "ist",
        "ad"
      ],
      [
        "oli",
        "cism"
      ],
      [
        "Ġhu",
        "man"
      ],
      [
        "end",
        "ar"
      ],
      [
        "end",
        "ale"
      ],
      [
        "ĠCh",
        "rist"
      ],
      [
        "ĠCh",
        "arles"
      ],
      [
        "ĠCh",
        "andler"
      ],
      [
        "ĠCh",
        "urch"
      ],
      [
        "ĠCh",
        "aykin"
      ],
      [
        "ĠCl",
        "ass"
      ],
      [
        "ĠCl",
        "arke"
      ],
      [
        "ĠCl",
        "ampett"
      ],
      [
        "ĠAn",
        "and"
      ],
      [
        "ĠAn",
        "asta"
      ],
      [
        "ĠAn",
        "derson"
      ],
      [
        "ĠTh",
        "ames"
      ],
      [
        "ĠTh",
        "omas"
      ],
      [
        "ĠTh",
        "ings"
      ],
      [
        "ĠTh",
        "ompson"
      ],
      [
        "ĠTh",
        "roat"
      ],
      [
        "Roman",
        "ce"
      ],
      [
        "Roman",
        "ian"
      ],
      [
        "Ba",
        "i"
      ],
      [
        "Ba",
        "ck"
      ],
      [
        "Ba",
        "varia"
      ],
      [
        "Ba",
        "sil"
      ],
      [
        "Bra",
        "d"
      ],
      [
        "Bra",
        "ve"
      ],
      [
        "Can",
        "cer"
      ],
      [
        "Da",
        "ve"
      ],
      [
        "De",
        "vin"
      ],
      [
        "De",
        "law"
      ],
      [
        "Kan",
        "eto"
      ],
      [
        "Sou",
        "ther"
      ],
      [
        "ag",
        "ged"
      ],
      [
        "bor",
        "ough"
      ],
      [
        "design",
        "er"
      ],
      [
        "design",
        "ed"
      ],
      [
        "ue",
        "z"
      ],
      [
        "ven",
        "mi"
      ],
      [
        "ĠU",
        "pon"
      ],
      [
        "ĠU",
        "sua"
      ],
      [
        "lip",
        "oli"
      ],
      [
        "lip",
        "inos"
      ],
      [
        "ĠCar",
        "ol"
      ],
      [
        "ĠCar",
        "mod"
      ],
      [
        "ĠCap",
        "ra"
      ],
      [
        "ĠCap",
        "ote"
      ],
      [
        "ille",
        "rs"
      ],
      [
        "ĠWin",
        "frey"
      ],
      [
        "ĠDon",
        "ner"
      ],
      [
        "ĠLe",
        "on"
      ],
      [
        "ĠLe",
        "ary"
      ],
      [
        "ĠLe",
        "gend"
      ],
      [
        "Star",
        "ter"
      ],
      [
        "Star",
        "gate"
      ],
      [
        "subje",
        "cts"
      ],
      [
        "Ad",
        "dams"
      ],
      [
        "Am",
        "blin"
      ],
      [
        "Am",
        "bient"
      ],
      [
        "Am",
        "istad"
      ],
      [
        "As",
        "heville"
      ],
      [
        "Bat",
        "on"
      ],
      [
        "Bat",
        "man"
      ],
      [
        "Bat",
        "tle"
      ],
      [
        "Com",
        "oros"
      ],
      [
        "Car",
        "mel"
      ],
      [
        "Car",
        "rie"
      ],
      [
        "Car",
        "oline"
      ],
      [
        "Chi",
        "ang"
      ],
      [
        "Den",
        "is"
      ],
      [
        "Dan",
        "te"
      ],
      [
        "Dan",
        "nii"
      ],
      [
        "Ge",
        "org"
      ],
      [
        "Ge",
        "orge"
      ],
      [
        "Ge",
        "ffen"
      ],
      [
        "Jos",
        "hua"
      ],
      [
        "La",
        "wrence"
      ],
      [
        "La",
        "urence"
      ],
      [
        "Pr",
        "ivate"
      ],
      [
        "Pr",
        "ince"
      ],
      [
        "Pr",
        "oduction"
      ],
      [
        "Pat",
        "ti"
      ],
      [
        "Pat",
        "ch"
      ],
[...]
